#include "magic_wand_model_data.h"


// We need to keep the data array aligned on some architectures.

#ifdef __has_attribute

#define HAVE_ATTRIBUTE(x) __has_attribute(x)

#else

#define HAVE_ATTRIBUTE(x) 0

#endif

#if HAVE_ATTRIBUTE(aligned) || (defined(__GNUC__) && !defined(__clang__))

#define DATA_ALIGN_ATTRIBUTE __attribute__((aligned(4)))

#else

#define DATA_ALIGN_ATTRIBUTE

#endif


const unsigned char g_magic_wand_model_data[] DATA_ALIGN_ATTRIBUTE = {

  // Paste the data of the char array in `src/model.cc` here

  0x1c, 0x00, 0x00, 0x00, 0x54, 0x46, 0x4c, 0x33, 0x00, 0x00, 0x12, 0x00,
  0x1c, 0x00, 0x04, 0x00, 0x08, 0x00, 0x0c, 0x00, 0x10, 0x00, 0x14, 0x00,
  0x00, 0x00, 0x18, 0x00, 0x12, 0x00, 0x00, 0x00, 0x03, 0x00, 0x00, 0x00,
  0x24, 0x30, 0x00, 0x00, 0x10, 0x00, 0x00, 0x00, 0x1c, 0x00, 0x00, 0x00,
  0x2c, 0x00, 0x00, 0x00, 0x0c, 0x00, 0x00, 0x00, 0x01, 0x00, 0x00, 0x00,
  0x14, 0x01, 0x00, 0x00, 0x01, 0x00, 0x00, 0x00, 0xdc, 0x00, 0x00, 0x00,
  0x0f, 0x00, 0x00, 0x00, 0x54, 0x4f, 0x43, 0x4f, 0x20, 0x43, 0x6f, 0x6e,
  0x76, 0x65, 0x72, 0x74, 0x65, 0x64, 0x2e, 0x00, 0x12, 0x00, 0x00, 0x00,
  0xb0, 0x00, 0x00, 0x00, 0xa4, 0x00, 0x00, 0x00, 0x98, 0x00, 0x00, 0x00,
  0x8c, 0x00, 0x00, 0x00, 0x80, 0x00, 0x00, 0x00, 0x74, 0x00, 0x00, 0x00,
  0x68, 0x00, 0x00, 0x00, 0x60, 0x00, 0x00, 0x00, 0x58, 0x00, 0x00, 0x00,
  0x50, 0x00, 0x00, 0x00, 0x48, 0x00, 0x00, 0x00, 0x40, 0x00, 0x00, 0x00,
  0x38, 0x00, 0x00, 0x00, 0x2c, 0x00, 0x00, 0x00, 0x20, 0x00, 0x00, 0x00,
  0x18, 0x00, 0x00, 0x00, 0x10, 0x00, 0x00, 0x00, 0x04, 0x00, 0x00, 0x00,
  0x6e, 0xd2, 0xff, 0xff, 0x68, 0x00, 0x00, 0x00, 0x30, 0xd2, 0xff, 0xff,
  0x34, 0xd2, 0xff, 0xff, 0x7e, 0xd2, 0xff, 0xff, 0xf0, 0x01, 0x00, 0x00,
  0x86, 0xd2, 0xff, 0xff, 0xc8, 0x03, 0x00, 0x00, 0x48, 0xd2, 0xff, 0xff,
  0x4c, 0xd2, 0xff, 0xff, 0x50, 0xd2, 0xff, 0xff, 0x54, 0xd2, 0xff, 0xff,
  0x58, 0xd2, 0xff, 0xff, 0x5c, 0xd2, 0xff, 0xff, 0xa6, 0xd2, 0xff, 0xff,
  0xc0, 0x0d, 0x00, 0x00, 0xae, 0xd2, 0xff, 0xff, 0x00, 0x2a, 0x00, 0x00,
  0xb6, 0xd2, 0xff, 0xff, 0x60, 0x2a, 0x00, 0x00, 0xbe, 0xd2, 0xff, 0xff,
  0xe0, 0x2a, 0x00, 0x00, 0xc6, 0xd2, 0xff, 0xff, 0x48, 0x2b, 0x00, 0x00,
  0xce, 0xd2, 0xff, 0xff, 0x98, 0x2c, 0x00, 0x00, 0x90, 0xd2, 0xff, 0xff,
  0x05, 0x00, 0x00, 0x00, 0x31, 0x2e, 0x35, 0x2e, 0x30, 0x00, 0x00, 0x00,
  0x54, 0xf4, 0xff, 0xff, 0x08, 0x00, 0x00, 0x00, 0x11, 0x00, 0x00, 0x00,
  0x13, 0x00, 0x00, 0x00, 0x6d, 0x69, 0x6e, 0x5f, 0x72, 0x75, 0x6e, 0x74,
  0x69, 0x6d, 0x65, 0x5f, 0x76, 0x65, 0x72, 0x73, 0x69, 0x6f, 0x6e, 0x00,
  0x0c, 0x00, 0x14, 0x00, 0x04, 0x00, 0x08, 0x00, 0x0c, 0x00, 0x10, 0x00,
  0x0c, 0x00, 0x00, 0x00, 0x20, 0x00, 0x00, 0x00, 0x14, 0x00, 0x00, 0x00,
  0x08, 0x00, 0x00, 0x00, 0x88, 0x2c, 0x00, 0x00, 0x01, 0x00, 0x00, 0x00,
  0x00, 0x00, 0x00, 0x00, 0x01, 0x00, 0x00, 0x00, 0x01, 0x00, 0x00, 0x00,
  0x10, 0x00, 0x00, 0x00, 0x9c, 0x0c, 0x00, 0x00, 0x14, 0x0b, 0x00, 0x00,
  0xd4, 0x00, 0x00, 0x00, 0x24, 0x29, 0x00, 0x00, 0x84, 0x00, 0x00, 0x00,
  0xa4, 0x02, 0x00, 0x00, 0x80, 0x29, 0x00, 0x00, 0x5c, 0x0b, 0x00, 0x00,
  0xb0, 0x0c, 0x00, 0x00, 0xc4, 0x2b, 0x00, 0x00, 0xf0, 0x0b, 0x00, 0x00,
  0x2c, 0x0c, 0x00, 0x00, 0x48, 0x2a, 0x00, 0x00, 0xec, 0x29, 0x00, 0x00,
  0x08, 0x00, 0x00, 0x00, 0x88, 0x0b, 0x00, 0x00, 0x66, 0xd4, 0xff, 0xff,
  0x10, 0x00, 0x00, 0x00, 0x10, 0x00, 0x00, 0x00, 0x1c, 0x00, 0x00, 0x00,
  0x40, 0x00, 0x00, 0x00, 0x04, 0x00, 0x00, 0x00, 0x01, 0x00, 0x00, 0x00,
  0x15, 0x00, 0x00, 0x00, 0x01, 0x00, 0x00, 0x00, 0x08, 0x00, 0x00, 0x00,
  0x20, 0x00, 0x00, 0x00, 0x73, 0x65, 0x71, 0x75, 0x65, 0x6e, 0x74, 0x69,
  0x61, 0x6c, 0x2f, 0x6d, 0x61, 0x78, 0x5f, 0x70, 0x6f, 0x6f, 0x6c, 0x69,
  0x6e, 0x67, 0x32, 0x64, 0x2f, 0x4d, 0x61, 0x78, 0x50, 0x6f, 0x6f, 0x6c,
  0x00, 0x00, 0x00, 0x00, 0x88, 0xd3, 0xff, 0xff, 0xba, 0xd4, 0xff, 0xff,
  0x10, 0x00, 0x00, 0x00, 0x0f, 0x00, 0x00, 0x00, 0x1c, 0x00, 0x00, 0x00,
  0x34, 0x00, 0x00, 0x00, 0x04, 0x00, 0x00, 0x00, 0x01, 0x00, 0x00, 0x00,
  0x40, 0x00, 0x00, 0x00, 0x03, 0x00, 0x00, 0x00, 0x08, 0x00, 0x00, 0x00,
  0x16, 0x00, 0x00, 0x00, 0x73, 0x65, 0x71, 0x75, 0x65, 0x6e, 0x74, 0x69,
  0x61, 0x6c, 0x2f, 0x63, 0x6f, 0x6e, 0x76, 0x32, 0x64, 0x2f, 0x52, 0x65,
  0x6c, 0x75, 0x00, 0x00, 0xd0, 0xd3, 0xff, 0xff, 0x02, 0xd5, 0xff, 0xff,
  0x10, 0x00, 0x00, 0x00, 0x0e, 0x00, 0x00, 0x00, 0x1c, 0x00, 0x00, 0x00,
  0x44, 0x00, 0x00, 0x00, 0x04, 0x00, 0x00, 0x00, 0x01, 0x00, 0x00, 0x00,
  0x04, 0x00, 0x00, 0x00, 0x03, 0x00, 0x00, 0x00, 0x08, 0x00, 0x00, 0x00,
  0x27, 0x00, 0x00, 0x00, 0x73, 0x65, 0x71, 0x75, 0x65, 0x6e, 0x74, 0x69,
  0x61, 0x6c, 0x2f, 0x63, 0x6f, 0x6e, 0x76, 0x32, 0x64, 0x2f, 0x43, 0x6f,
  0x6e, 0x76, 0x32, 0x44, 0x2f, 0x52, 0x65, 0x61, 0x64, 0x56, 0x61, 0x72,
  0x69, 0x61, 0x62, 0x6c, 0x65, 0x4f, 0x70, 0x00, 0x28, 0xd4, 0xff, 0xff,
  0x80, 0x01, 0x00, 0x00, 0x49, 0x02, 0xc2, 0x3d, 0x09, 0x12, 0xc8, 0xbd,
  0x35, 0x79, 0x0a, 0x3d, 0x34, 0x34, 0xb0, 0x3c, 0x2b, 0xb3, 0xe3, 0x3d,
  0x15, 0x71, 0xc0, 0x3c, 0x33, 0x03, 0x98, 0x3e, 0xcc, 0x89, 0x92, 0xbc,
  0xe7, 0x77, 0x46, 0xbb, 0x20, 0xdb, 0x54, 0xbe, 0x95, 0x06, 0xc2, 0xbd,
  0xb8, 0x79, 0x06, 0x3e, 0xee, 0xe7, 0x9d, 0x3d, 0x15, 0x63, 0x04, 0x3e,
  0x9c, 0x69, 0xa6, 0x3e, 0x53, 0xde, 0x21, 0xbe, 0x97, 0x9f, 0xd2, 0xbd,
  0xf2, 0x99, 0x53, 0xbe, 0xf2, 0x1f, 0x07, 0xbc, 0xd8, 0x4f, 0x75, 0xbe,
  0x19, 0x64, 0x0d, 0xbd, 0x8d, 0x96, 0xf3, 0xbe, 0xe6, 0x88, 0x1a, 0x3e,
  0x6d, 0x2c, 0x0d, 0x3e, 0x4e, 0x4b, 0xff, 0x3e, 0x68, 0x22, 0xef, 0xbd,
  0x03, 0x98, 0x8f, 0xbd, 0xfa, 0xe2, 0x79, 0x3d, 0xc0, 0xea, 0x10, 0x3f,
  0x88, 0xbe, 0xac, 0x3d, 0xe0, 0x1e, 0xc5, 0xbd, 0xdf, 0xf0, 0x80, 0xbd,
  0x74, 0xdf, 0x37, 0x3d, 0xc5, 0x11, 0x1f, 0xbe, 0x67, 0x62, 0xaa, 0xbe,
  0x2e, 0x5b, 0x3b, 0x3d, 0x6d, 0xa6, 0x3f, 0x3e, 0x64, 0xed, 0x46, 0x3e,
  0x50, 0xec, 0x8d, 0x3d, 0x65, 0x77, 0x5e, 0x3c, 0x21, 0xf2, 0x27, 0x3e,
  0xb8, 0x77, 0x5c, 0xbe, 0x4a, 0xfb, 0x87, 0xbd, 0x3b, 0xc3, 0x82, 0xbd,
  0x31, 0xe8, 0xcb, 0xbd, 0xf5, 0xe7, 0xdc, 0xbd, 0x3c, 0xa8, 0x16, 0xbd,
  0xb5, 0xda, 0x6b, 0x3d, 0x99, 0x06, 0x86, 0x3e, 0x15, 0xbc, 0x9a, 0x3e,
  0xb3, 0x93, 0x5c, 0x3e, 0x94, 0x85, 0x20, 0x3d, 0x7a, 0xf7, 0x8a, 0xbe,
  0x28, 0x7e, 0x42, 0x3e, 0x9a, 0x21, 0x28, 0xbd, 0xc4, 0x08, 0x1e, 0xbd,
  0x17, 0xa9, 0x10, 0xbe, 0x71, 0x59, 0x2c, 0x3e, 0xa1, 0x91, 0xf8, 0x3c,
  0x93, 0x48, 0xa8, 0x3d, 0x60, 0x22, 0xd3, 0xbc, 0xc8, 0xac, 0xa7, 0xbe,
  0x5a, 0xea, 0xbf, 0xbe, 0x68, 0xa1, 0x4e, 0x3d, 0x00, 0xc5, 0x63, 0xbb,
  0x55, 0x7d, 0x82, 0x3e, 0x4b, 0x1b, 0x86, 0xbd, 0x52, 0x09, 0xea, 0xbd,
  0xa1, 0x77, 0x4a, 0x3e, 0x85, 0x41, 0x19, 0x3c, 0x98, 0x1b, 0xea, 0xbd,
  0x63, 0x56, 0xab, 0xbd, 0x8e, 0x37, 0x52, 0x3e, 0xcd, 0xb5, 0x8f, 0x3c,
  0xf9, 0xb9, 0x17, 0x3f, 0x0a, 0xfe, 0x29, 0x3e, 0x04, 0xc5, 0xb4, 0xbe,
  0x6b, 0xf1, 0x1b, 0xbd, 0xc1, 0xb2, 0x45, 0xbe, 0x79, 0xf0, 0x86, 0x3c,
  0x25, 0x35, 0x22, 0x3e, 0x47, 0x58, 0x41, 0x3e, 0x75, 0xf2, 0x43, 0x3e,
  0x35, 0x30, 0x07, 0xbe, 0x13, 0x56, 0x8d, 0xbe, 0xc9, 0x09, 0xe8, 0xbd,
  0xfc, 0xe4, 0xf4, 0xbd, 0xdc, 0x60, 0x06, 0xbc, 0xad, 0x77, 0x3d, 0xbe,
  0xf0, 0x20, 0x02, 0x3e, 0xe1, 0x12, 0x85, 0x3e, 0xec, 0xc6, 0x28, 0x3b,
  0x57, 0xd3, 0x91, 0xbd, 0x5b, 0x36, 0x48, 0x3e, 0xbf, 0xb8, 0xc1, 0xbd,
  0x77, 0x21, 0xaa, 0x3d, 0xde, 0xd6, 0xff, 0xff, 0x10, 0x00, 0x00, 0x00,
  0x0d, 0x00, 0x00, 0x00, 0x1c, 0x00, 0x00, 0x00, 0x48, 0x00, 0x00, 0x00,
  0x04, 0x00, 0x00, 0x00, 0x10, 0x00, 0x00, 0x00, 0x04, 0x00, 0x00, 0x00,
  0x01, 0x00, 0x00, 0x00, 0x08, 0x00, 0x00, 0x00, 0x29, 0x00, 0x00, 0x00,
  0x73, 0x65, 0x71, 0x75, 0x65, 0x6e, 0x74, 0x69, 0x61, 0x6c, 0x2f, 0x63,
  0x6f, 0x6e, 0x76, 0x32, 0x64, 0x5f, 0x31, 0x2f, 0x43, 0x6f, 0x6e, 0x76,
  0x32, 0x44, 0x2f, 0x52, 0x65, 0x61, 0x64, 0x56, 0x61, 0x72, 0x69, 0x61,
  0x62, 0x6c, 0x65, 0x4f, 0x70, 0x00, 0x00, 0x00, 0x08, 0xd6, 0xff, 0xff,
  0x00, 0x08, 0x00, 0x00, 0x93, 0xb7, 0x44, 0xbd, 0xc6, 0xb3, 0xb7, 0x3e,
  0xd0, 0x37, 0xee, 0x3e, 0xa8, 0x7c, 0x85, 0xbe, 0x39, 0x1b, 0x8c, 0x3e,
  0xee, 0x18, 0x2d, 0xbe, 0xe8, 0x59, 0xf9, 0xbd, 0x59, 0xd2, 0xb7, 0xbe,
  0x30, 0x91, 0x73, 0xbd, 0x88, 0xaf, 0x24, 0x3d, 0x2c, 0x82, 0xb6, 0xbd,
  0x12, 0xc4, 0x17, 0xbe, 0xb2, 0xe6, 0x15, 0x3d, 0x0d, 0x23, 0x5b, 0xbe,
  0x1c, 0x98, 0xbb, 0xbc, 0xdb, 0xb7, 0x3e, 0xbe, 0x57, 0x3c, 0x14, 0xbd,
  0xf5, 0x68, 0x94, 0xbd, 0xa7, 0x48, 0x9c, 0xbd, 0xc5, 0x6c, 0x1c, 0x3d,
  0x92, 0xb9, 0xa5, 0x3c, 0xd3, 0xcb, 0x72, 0x3c, 0xe2, 0x0c, 0x1a, 0x3e,
  0x85, 0x73, 0x09, 0xbd, 0xce, 0x8b, 0x56, 0xbd, 0xc6, 0x9e, 0x1c, 0xbe,
  0x9a, 0xb9, 0x0f, 0xbe, 0x1e, 0xcc, 0x8e, 0x3c, 0x95, 0x2d, 0x63, 0xbf,
  0xed, 0xb0, 0x2f, 0x3e, 0xda, 0x0a, 0x5d, 0xbe, 0xb5, 0xe0, 0x9c, 0xbd,
  0xd4, 0x13, 0x58, 0xbd, 0x40, 0xf8, 0x9b, 0xbc, 0xbd, 0x24, 0x21, 0xbd,
  0xbe, 0xe3, 0x68, 0x3c, 0x74, 0xb5, 0x5a, 0xbd, 0x3a, 0x9f, 0xd8, 0xbe,
  0xa2, 0x7d, 0xcc, 0xbe, 0x39, 0x93, 0xff, 0x3a, 0x91, 0x0c, 0xce, 0xbd,
  0x84, 0xfb, 0xc8, 0x3e, 0xa3, 0xc7, 0xfe, 0xbb, 0x85, 0x27, 0xcc, 0x3c,
  0x9e, 0x54, 0x7f, 0x3e, 0x87, 0x1d, 0xd2, 0xbe, 0x8c, 0x00, 0x3e, 0xbe,
  0x7c, 0xe1, 0x92, 0xbd, 0x6f, 0xf1, 0x7f, 0xbd, 0x28, 0x5b, 0x1b, 0xbe,
  0x66, 0x13, 0x05, 0xbe, 0x29, 0x34, 0xe5, 0x3b, 0x73, 0x7c, 0x56, 0xbd,
  0x49, 0x32, 0x98, 0xbe, 0x0e, 0xdd, 0xd8, 0xbe, 0x34, 0xa8, 0x79, 0x3d,
  0xb5, 0xdc, 0x98, 0xbd, 0xe7, 0x3b, 0x37, 0x3d, 0x7d, 0xc3, 0x8a, 0xbd,
  0x8d, 0xd9, 0x15, 0x3c, 0xe9, 0xa1, 0x8a, 0x3d, 0x2c, 0x13, 0x39, 0xbf,
  0x16, 0x82, 0x3d, 0xbe, 0x7b, 0x54, 0xc0, 0x3e, 0x4e, 0xd5, 0x48, 0xbe,
  0x62, 0x5b, 0x29, 0xbe, 0xa6, 0xd6, 0x83, 0xbd, 0xc1, 0x3b, 0x1a, 0xbe,
  0x4b, 0x4a, 0x6c, 0xbe, 0xf4, 0x74, 0x3b, 0xbe, 0x60, 0x78, 0x79, 0xbe,
  0xdf, 0x06, 0x90, 0x3d, 0x67, 0x5d, 0x88, 0xbe, 0x93, 0xec, 0x5c, 0xbe,
  0xde, 0x7e, 0x1a, 0xbe, 0x68, 0x85, 0x7b, 0x3e, 0x6e, 0x15, 0xeb, 0x3d,
  0x12, 0x07, 0x27, 0xbe, 0x7b, 0xbb, 0x8a, 0xbd, 0xb5, 0x20, 0x83, 0x3e,
  0x3b, 0xa8, 0xd5, 0xbe, 0x9c, 0x11, 0xb2, 0x3d, 0x82, 0xc5, 0x3f, 0xbe,
  0xdb, 0xee, 0x19, 0xbe, 0x64, 0x7e, 0xe0, 0x3d, 0x03, 0x9e, 0xe8, 0x3e,
  0xe6, 0xd0, 0x8d, 0x3d, 0x37, 0x13, 0xac, 0xbd, 0x30, 0x4f, 0xc1, 0xbe,
  0xf5, 0xe9, 0x18, 0x3e, 0x7f, 0x4b, 0x24, 0x3d, 0x06, 0x9a, 0x83, 0xbe,
  0x0a, 0x60, 0x30, 0x3e, 0x33, 0xc8, 0xe6, 0xbd, 0x56, 0x95, 0x1b, 0xbe,
  0xab, 0x4a, 0x71, 0x3b, 0xc3, 0xbd, 0xcd, 0x3d, 0x3c, 0x61, 0xe9, 0x3d,
  0xcf, 0x37, 0xaa, 0xbe, 0xd6, 0x9c, 0xcd, 0x3d, 0x39, 0x5b, 0x47, 0xbe,
  0xd8, 0x14, 0x07, 0xbe, 0xcc, 0xcf, 0x0e, 0xbf, 0xef, 0xfc, 0xd4, 0x3d,
  0x52, 0x3b, 0xe9, 0x3e, 0xfa, 0xa0, 0x66, 0x3e, 0x0f, 0x2a, 0xa8, 0xbe,
  0xa5, 0x11, 0x6a, 0x3b, 0x7d, 0x7e, 0xe0, 0xbc, 0x27, 0x5a, 0xd6, 0xbe,
  0xf5, 0x62, 0x98, 0xbe, 0xf1, 0x15, 0x2d, 0xbd, 0xc2, 0x02, 0x97, 0xbd,
  0x78, 0x53, 0x9e, 0xbc, 0xcf, 0x00, 0xf6, 0xbe, 0x74, 0x7e, 0xcd, 0xbb,
  0x09, 0xda, 0x8d, 0x3d, 0x14, 0xb7, 0xa4, 0xbe, 0x4e, 0x19, 0xe8, 0x3d,
  0xa5, 0x0c, 0x4a, 0x3c, 0xcd, 0xab, 0x09, 0xbe, 0x32, 0xd2, 0x27, 0xbc,
  0xd3, 0xc5, 0xb4, 0xbe, 0xdf, 0xbe, 0xf9, 0xbd, 0x41, 0xf1, 0x85, 0x3e,
  0x0c, 0x48, 0x07, 0xb9, 0x9d, 0xb3, 0x42, 0x3e, 0xe8, 0x58, 0x01, 0x3d,
  0x08, 0x33, 0x6a, 0x3e, 0xee, 0x6b, 0x78, 0x3e, 0x95, 0xca, 0xe5, 0xbd,
  0x6f, 0xf7, 0xae, 0xbe, 0x86, 0x62, 0x0c, 0x3f, 0x86, 0x1f, 0xa7, 0xbe,
  0xf8, 0xb6, 0xc0, 0x3d, 0xd2, 0x64, 0x9c, 0xbe, 0x15, 0x08, 0xdb, 0xbd,
  0xf8, 0xa5, 0xdc, 0xbe, 0xe9, 0x20, 0x1e, 0xbe, 0x41, 0xa2, 0x2d, 0xbe,
  0x01, 0x23, 0x94, 0xbd, 0xa6, 0xa9, 0x8f, 0xbd, 0x9a, 0x89, 0x6c, 0x3e,
  0x02, 0x20, 0x35, 0xbe, 0xf5, 0xb2, 0x9b, 0xbe, 0x07, 0x48, 0x37, 0x3e,
  0x66, 0xf7, 0xeb, 0xbd, 0x88, 0xb1, 0x85, 0xbd, 0xf7, 0x3c, 0xdd, 0xbe,
  0x2d, 0x25, 0x4e, 0x3e, 0x9e, 0x8d, 0x17, 0xbe, 0x96, 0x19, 0xe3, 0xbd,
  0x59, 0xf2, 0x95, 0xbd, 0x6e, 0xb9, 0x48, 0x3e, 0x39, 0xaa, 0x67, 0x3c,
  0x3a, 0x2c, 0x0a, 0x3d, 0x36, 0xb9, 0xee, 0xbe, 0x2e, 0x3c, 0x7e, 0x3d,
  0xcc, 0x0b, 0xa0, 0xbe, 0x0d, 0xac, 0x0d, 0xbe, 0xcb, 0xdd, 0x94, 0xbe,
  0x46, 0xc4, 0xbf, 0xbb, 0x81, 0x30, 0x02, 0xbd, 0xc3, 0x01, 0x56, 0xbe,
  0x13, 0xcf, 0xa4, 0xbd, 0xac, 0x4a, 0x01, 0xbe, 0xf3, 0xeb, 0xb6, 0xbd,
  0x19, 0x6c, 0xc3, 0xbd, 0xa2, 0x03, 0x68, 0xbe, 0x63, 0x20, 0x97, 0x3d,
  0xe0, 0x6f, 0x27, 0x3d, 0xae, 0xaf, 0x95, 0x3d, 0x41, 0x68, 0x10, 0x3e,
  0x1a, 0xa6, 0x5e, 0x3d, 0x2c, 0x4b, 0x0d, 0xbd, 0x96, 0xeb, 0x83, 0x3e,
  0x3b, 0x8a, 0x5a, 0xbe, 0x8b, 0x8a, 0xdd, 0x3d, 0x97, 0x6a, 0xbb, 0x3e,
  0xc1, 0xa1, 0x87, 0xbd, 0x4d, 0x66, 0x8a, 0x3e, 0x32, 0x29, 0x75, 0x3d,
  0x57, 0xae, 0xf5, 0xbd, 0x28, 0xd7, 0x86, 0xbd, 0xa6, 0x6f, 0x41, 0xbe,
  0xbb, 0x31, 0x83, 0x3e, 0x00, 0x3f, 0x23, 0x3b, 0xd7, 0x41, 0x01, 0xbe,
  0x2d, 0xd8, 0xcf, 0x3d, 0x52, 0xd9, 0xfc, 0xbd, 0xba, 0x2d, 0x92, 0xbe,
  0x1f, 0xea, 0x8f, 0xbd, 0x61, 0xb1, 0x18, 0x3e, 0x46, 0x94, 0xc8, 0xbe,
  0xc0, 0xcd, 0x59, 0x3d, 0x87, 0x09, 0xa7, 0x3d, 0xee, 0xf9, 0xc6, 0xbe,
  0x19, 0x16, 0x59, 0x3e, 0xca, 0x45, 0xc3, 0xbc, 0x26, 0x42, 0x1f, 0xbd,
  0xa4, 0x7e, 0xd0, 0x3d, 0x14, 0xbd, 0x47, 0xbe, 0x77, 0x70, 0xc1, 0x3d,
  0x69, 0x82, 0xe3, 0x3d, 0x51, 0x92, 0x19, 0xbe, 0xcf, 0x9a, 0x52, 0xb9,
  0xed, 0x34, 0xbf, 0xba, 0x16, 0xf7, 0x67, 0xbe, 0x7f, 0x70, 0xf5, 0xbd,
  0x76, 0x37, 0x9f, 0xbc, 0x65, 0xcf, 0x3e, 0xbe, 0x34, 0xde, 0x87, 0xbd,
  0x73, 0xd2, 0x11, 0xbe, 0x73, 0xf4, 0x64, 0x3e, 0x1b, 0x70, 0xa7, 0xbd,
  0x4c, 0x60, 0x9f, 0xbe, 0xf1, 0xc4, 0x1c, 0xbe, 0xf6, 0x09, 0xd7, 0x3c,
  0x89, 0xea, 0xbd, 0xbd, 0xe4, 0xb0, 0x8a, 0xbe, 0x83, 0xbf, 0x05, 0x3e,
  0xf3, 0xb3, 0x7e, 0xbe, 0x07, 0xed, 0x8f, 0xbe, 0x49, 0x53, 0x12, 0xbf,
  0x87, 0x7b, 0xb6, 0xbd, 0x2c, 0xb3, 0xc5, 0xbd, 0x4b, 0x01, 0xb7, 0xbd,
  0x43, 0x99, 0x0b, 0xbe, 0x05, 0x0b, 0xb9, 0xbe, 0x19, 0x4d, 0x25, 0xbe,
  0x8a, 0x26, 0xa8, 0xbe, 0x3d, 0xb9, 0x42, 0xbe, 0x0f, 0xf4, 0x51, 0xbc,
  0x7e, 0xb7, 0x7c, 0xbe, 0x60, 0x7e, 0x32, 0xbd, 0x9c, 0x3c, 0xc4, 0xbd,
  0x0b, 0xd4, 0xa5, 0xbd, 0x99, 0xf7, 0x0d, 0xbe, 0xb8, 0x42, 0x57, 0xbe,
  0x94, 0x41, 0x7c, 0xbe, 0x4c, 0x42, 0x72, 0xbb, 0x46, 0xa3, 0x83, 0xbe,
  0xe5, 0xb4, 0x0a, 0x3e, 0x41, 0xd5, 0x74, 0xbd, 0xac, 0xea, 0x5d, 0x3e,
  0x52, 0x73, 0x40, 0xbd, 0xee, 0xab, 0xe3, 0xbb, 0xd0, 0xf4, 0x33, 0xbe,
  0x25, 0x9a, 0xbc, 0xbd, 0x2e, 0xf3, 0x49, 0x3c, 0x9b, 0x9f, 0x6b, 0xbd,
  0x7e, 0x63, 0x55, 0x3e, 0x81, 0x42, 0x9d, 0x3e, 0x5f, 0xc3, 0x8f, 0x3e,
  0x0d, 0x02, 0xea, 0x3e, 0xfc, 0xf0, 0x5a, 0x3d, 0x0c, 0x9e, 0x66, 0xbd,
  0xff, 0x09, 0x47, 0x3e, 0x42, 0x91, 0xea, 0xbc, 0x7a, 0xfe, 0x59, 0xba,
  0x09, 0x31, 0xe8, 0xbe, 0x7d, 0x14, 0x4a, 0xbc, 0x3d, 0x49, 0x87, 0xbe,
  0x66, 0x86, 0xcb, 0xbe, 0xbf, 0xc2, 0x6c, 0xbd, 0x4c, 0x30, 0x6d, 0x3e,
  0x41, 0x6f, 0xe5, 0x3e, 0x53, 0xa6, 0x8b, 0xbe, 0xa9, 0xfa, 0xf4, 0x3c,
  0xe2, 0x49, 0x16, 0xbe, 0x9e, 0x64, 0x67, 0xbf, 0x8d, 0xd4, 0xb1, 0xbe,
  0x2f, 0xc4, 0xfa, 0xbc, 0x95, 0xbe, 0xb7, 0x3c, 0x1e, 0x97, 0x9c, 0xbd,
  0xf6, 0x65, 0x73, 0xbe, 0x60, 0x10, 0x9a, 0x3d, 0x83, 0x51, 0x63, 0xbe,
  0x42, 0x7e, 0x52, 0x3d, 0x04, 0x8c, 0xa0, 0xbe, 0xa9, 0xde, 0xf7, 0xbd,
  0xee, 0xff, 0x02, 0xbe, 0xcf, 0x5a, 0xd2, 0xbd, 0x0d, 0x67, 0xe3, 0xbd,
  0xc7, 0x7e, 0x2e, 0x3e, 0xaa, 0xcb, 0xa4, 0x3d, 0x46, 0x01, 0x16, 0x3e,
  0x8a, 0xac, 0x44, 0xbe, 0xad, 0x1d, 0xac, 0xbc, 0x93, 0x58, 0x1f, 0xbd,
  0xc1, 0x1b, 0xf4, 0x3d, 0x8c, 0xfb, 0x48, 0xbe, 0x30, 0xc7, 0x64, 0xbf,
  0x45, 0x56, 0x1f, 0xbe, 0x19, 0xbe, 0x27, 0xbf, 0xe4, 0x1f, 0xbd, 0xbe,
  0x70, 0x2f, 0x65, 0x3d, 0x18, 0xd5, 0x50, 0x3f, 0x4d, 0xef, 0xd8, 0xbd,
  0xdf, 0x08, 0xab, 0xbe, 0x7b, 0x63, 0x1f, 0x3e, 0x6c, 0xdd, 0x45, 0xbe,
  0xdf, 0xea, 0x7f, 0x3c, 0x8d, 0x57, 0xda, 0xbe, 0xc7, 0xae, 0x81, 0xbc,
  0x4c, 0xc9, 0xda, 0xbe, 0x8d, 0xd7, 0xe6, 0xbd, 0xdd, 0x84, 0x49, 0xbe,
  0x9f, 0xd0, 0x8d, 0x3e, 0x1e, 0xe8, 0x36, 0xbd, 0xb4, 0x64, 0x75, 0x3e,
  0xae, 0x9f, 0x9e, 0xbe, 0x99, 0xcd, 0x5d, 0xbd, 0xca, 0x06, 0xfa, 0xbe,
  0xbd, 0xfd, 0x41, 0xbd, 0x2e, 0xaa, 0xf9, 0xbc, 0x6b, 0xc3, 0xa7, 0xbd,
  0x1a, 0x05, 0x1e, 0x3d, 0x80, 0xfe, 0x8d, 0x3d, 0xc0, 0xf9, 0x29, 0xbe,
  0xa3, 0x24, 0x8d, 0x3e, 0xd3, 0xf3, 0x00, 0x3c, 0xc9, 0x66, 0x9e, 0xbe,
  0xa7, 0xd7, 0x3b, 0x3d, 0xe7, 0xef, 0x86, 0x3e, 0x95, 0x70, 0xd0, 0xbe,
  0x10, 0x04, 0xdf, 0x3c, 0xe4, 0xdf, 0xa2, 0x3c, 0xbe, 0xbc, 0xb2, 0xbd,
  0x2f, 0x46, 0x8e, 0xbd, 0xd3, 0x9a, 0xc4, 0xbe, 0x0e, 0x98, 0x1e, 0xbe,
  0xbc, 0xe1, 0xa7, 0x3d, 0x9a, 0x5e, 0x05, 0xbf, 0xbf, 0xcc, 0x22, 0xbc,
  0x2d, 0x46, 0xb8, 0xbc, 0x98, 0x79, 0x8b, 0xbe, 0x08, 0x43, 0x08, 0x3d,
  0xe5, 0x17, 0x29, 0xbe, 0xde, 0xca, 0x5b, 0xbe, 0x49, 0x73, 0x34, 0x3e,
  0xc2, 0xa5, 0xf7, 0x3b, 0xad, 0xe6, 0x1c, 0xbd, 0xf0, 0x6d, 0x2f, 0x3d,
  0x74, 0x90, 0x9f, 0xbe, 0x9b, 0x46, 0x3d, 0x3e, 0x7b, 0x3d, 0xcf, 0x3e,
  0x40, 0x91, 0x3c, 0xbe, 0xb8, 0x3d, 0x5d, 0xbd, 0x62, 0x82, 0x84, 0x3e,
  0x00, 0x85, 0x48, 0xbe, 0x94, 0x68, 0x8a, 0x3d, 0x95, 0x0b, 0xb8, 0x3e,
  0xf5, 0x9e, 0x5b, 0x3e, 0xf6, 0xdd, 0xb4, 0xbc, 0x82, 0xd5, 0xe4, 0xbe,
  0xb4, 0x3e, 0xe6, 0x3d, 0x32, 0x71, 0x94, 0xbd, 0xda, 0xa6, 0xd5, 0x3e,
  0x53, 0xff, 0x90, 0xbe, 0x32, 0x08, 0x21, 0xbe, 0x1a, 0xd9, 0x13, 0x3e,
  0x57, 0xbf, 0x9c, 0xbd, 0x12, 0x38, 0xf3, 0xbe, 0x32, 0x26, 0xab, 0x3e,
  0xc7, 0xc6, 0x06, 0xbe, 0x09, 0x37, 0x51, 0x3d, 0x88, 0xee, 0xa4, 0xbe,
  0x85, 0x81, 0xd1, 0x3d, 0x80, 0x49, 0x7c, 0x3e, 0x5d, 0xa3, 0xb9, 0xbd,
  0x01, 0xea, 0x81, 0xbe, 0xba, 0x8c, 0x5e, 0x3e, 0x10, 0x34, 0xda, 0x3c,
  0x26, 0x38, 0xbe, 0xbd, 0x63, 0xd8, 0xae, 0xbe, 0x80, 0x78, 0xee, 0x3c,
  0x8a, 0x88, 0x9a, 0x3e, 0x01, 0x73, 0xbf, 0xbd, 0x0e, 0xb6, 0x85, 0xbe,
  0xe3, 0x69, 0xcc, 0x3e, 0x44, 0x4c, 0x81, 0x3d, 0xa0, 0x3f, 0xe4, 0x3d,
  0x62, 0x92, 0x8a, 0xbe, 0xab, 0x56, 0x1d, 0xbc, 0xb8, 0x1a, 0xfa, 0xbc,
  0x96, 0xe0, 0x92, 0xbe, 0xab, 0x2b, 0x85, 0x3e, 0x9f, 0x03, 0xe5, 0x3e,
  0x0d, 0x35, 0x6d, 0x3e, 0xed, 0xac, 0xbb, 0x3d, 0x62, 0x57, 0xe7, 0x3d,
  0x93, 0xf5, 0x3b, 0xbe, 0x4e, 0x36, 0x8e, 0x3d, 0xf5, 0xbf, 0x26, 0xbe,
  0xe3, 0x7f, 0xd0, 0xbd, 0x8e, 0x10, 0x36, 0x3d, 0x6a, 0x09, 0x95, 0xbd,
  0x06, 0xc4, 0x0c, 0x3e, 0x72, 0xad, 0x8d, 0xbc, 0x91, 0xf0, 0x23, 0xbe,
  0x40, 0x2b, 0x97, 0x3e, 0xab, 0xfd, 0x8e, 0xbd, 0xf8, 0x29, 0x41, 0xbe,
  0x35, 0x00, 0x81, 0xbd, 0x03, 0x22, 0xf1, 0xbd, 0xb7, 0x11, 0x9e, 0xbe,
  0x63, 0x07, 0x00, 0xbd, 0xa3, 0xb8, 0xed, 0xbd, 0x73, 0xac, 0x77, 0xbd,
  0x6f, 0xa3, 0xd4, 0x3e, 0x95, 0xcb, 0x3d, 0xbe, 0x43, 0xb9, 0x2d, 0xbe,
  0x7e, 0xc1, 0x33, 0xbe, 0x3d, 0xb7, 0xca, 0xbe, 0xf0, 0xdf, 0xbd, 0xbd,
  0x61, 0xf2, 0xc1, 0xbd, 0x02, 0x73, 0x0e, 0xbd, 0x9d, 0xbf, 0xbe, 0xbd,
  0x7e, 0xc5, 0x9c, 0xbd, 0xdf, 0x9b, 0x34, 0xbd, 0x58, 0x12, 0xdb, 0xbd,
  0x1b, 0x30, 0xf7, 0xbc, 0x24, 0x9f, 0x84, 0xbd, 0xed, 0xfd, 0x5a, 0x3c,
  0x4d, 0x5d, 0x12, 0x3d, 0x9b, 0xd2, 0x3c, 0xbd, 0xc3, 0xd7, 0x35, 0xbd,
  0x77, 0xc9, 0x30, 0x3c, 0x9a, 0x38, 0x00, 0x3e, 0x64, 0x8c, 0x36, 0x3e,
  0xeb, 0x5a, 0xd3, 0xbc, 0xbd, 0x3b, 0x8d, 0x3b, 0x5b, 0xd7, 0x66, 0xbe,
  0xee, 0x89, 0xf1, 0xbb, 0x71, 0xee, 0xe6, 0xbc, 0x98, 0x72, 0x54, 0xbe,
  0xa2, 0x14, 0x5c, 0xbc, 0x87, 0xdd, 0x7d, 0xbd, 0x84, 0xfe, 0x04, 0x3c,
  0x69, 0xab, 0xcf, 0x3d, 0x7e, 0x05, 0x0f, 0x3f, 0x40, 0xeb, 0x27, 0x3e,
  0x5e, 0x44, 0x38, 0xbc, 0x8f, 0x6a, 0x2f, 0x3e, 0x89, 0x57, 0x5d, 0x3d,
  0x12, 0xa1, 0x4e, 0x3e, 0x7f, 0x61, 0x94, 0x3b, 0x96, 0x10, 0x87, 0xbe,
  0x4f, 0xb0, 0x45, 0xbe, 0x75, 0x66, 0xaf, 0xbc, 0xc8, 0xba, 0x52, 0xbe,
  0x48, 0x2e, 0x44, 0x3d, 0xf5, 0x7d, 0xcb, 0xbe, 0x5a, 0x1f, 0xf3, 0xbd,
  0xb6, 0xa8, 0xe3, 0xbd, 0x1c, 0x9c, 0x35, 0xbe, 0x01, 0xbf, 0x2e, 0x3e,
  0xf0, 0xff, 0xc6, 0x3c, 0x1c, 0x97, 0x60, 0x3d, 0x33, 0xeb, 0xec, 0x3b,
  0x1a, 0x27, 0xd2, 0xbe, 0x24, 0xbd, 0xb2, 0xbe, 0xb6, 0xce, 0x44, 0x3e,
  0x16, 0x5a, 0x45, 0x3c, 0xaf, 0x2c, 0x0b, 0x3e, 0xdb, 0x3c, 0x22, 0xbe,
  0x41, 0xde, 0x98, 0x3d, 0x72, 0xfd, 0x38, 0x3e, 0xfc, 0xdc, 0xbc, 0xbe,
  0xf1, 0x8f, 0xa8, 0xbd, 0x1b, 0x31, 0xb2, 0x3d, 0x28, 0x6c, 0x46, 0xbc,
  0x46, 0xe6, 0x2f, 0xbe, 0x24, 0x93, 0x96, 0x3b, 0xa3, 0xe8, 0xbb, 0xbd,
  0x16, 0x5e, 0xea, 0x3e, 0xb3, 0x03, 0x13, 0xbf, 0xbe, 0xcf, 0x7f, 0x3e,
  0x12, 0xfd, 0xbf, 0x3d, 0xae, 0x47, 0xe5, 0xbe, 0x40, 0x8d, 0x25, 0x3e,
  0x29, 0x81, 0x6e, 0xbd, 0xf3, 0xe9, 0xa9, 0xbd, 0x33, 0x8d, 0x21, 0x3d,
  0x9e, 0x47, 0x1f, 0x3f, 0x84, 0xfb, 0x67, 0xbc, 0x2b, 0x36, 0x56, 0x3e,
  0x4b, 0x33, 0x79, 0xbe, 0x85, 0xa1, 0x23, 0x3c, 0x9a, 0x8f, 0x0f, 0xbe,
  0xb1, 0xbb, 0xb2, 0xbe, 0xd4, 0x8e, 0x10, 0xbe, 0x44, 0x57, 0x5d, 0xbe,
  0xb4, 0xc3, 0x9e, 0xbe, 0x68, 0xfb, 0xcf, 0xbd, 0x0c, 0x6d, 0xc7, 0xbd,
  0x40, 0x3d, 0x80, 0x3e, 0xbe, 0x85, 0xc5, 0xbd, 0xf4, 0x9d, 0x84, 0xbe,
  0x3b, 0xad, 0x06, 0x3e, 0x3a, 0x2a, 0x59, 0xbe, 0xe9, 0x1c, 0x3c, 0xbe,
  0xe5, 0xf9, 0xc1, 0xbd, 0x33, 0xf9, 0x32, 0x3e, 0x1c, 0xb6, 0x5a, 0x3d,
  0xa5, 0x14, 0x1e, 0x3e, 0xbb, 0x97, 0x56, 0xbd, 0xae, 0x05, 0x3b, 0x3d,
  0xc6, 0x44, 0x58, 0xbe, 0xbd, 0x7c, 0x4d, 0xbe, 0xf6, 0x3e, 0x64, 0xbe,
  0x3e, 0xdf, 0xff, 0xff, 0x10, 0x00, 0x00, 0x00, 0x0c, 0x00, 0x00, 0x00,
  0x1c, 0x00, 0x00, 0x00, 0x34, 0x00, 0x00, 0x00, 0x04, 0x00, 0x00, 0x00,
  0x01, 0x00, 0x00, 0x00, 0x40, 0x00, 0x00, 0x00, 0x03, 0x00, 0x00, 0x00,
  0x01, 0x00, 0x00, 0x00, 0x0c, 0x00, 0x00, 0x00, 0x63, 0x6f, 0x6e, 0x76,
  0x32, 0x64, 0x5f, 0x69, 0x6e, 0x70, 0x75, 0x74, 0x00, 0x00, 0x00, 0x00,
  0x08, 0x00, 0x0c, 0x00, 0x04, 0x00, 0x08, 0x00, 0x08, 0x00, 0x00, 0x00,
  0x10, 0x00, 0x00, 0x00, 0x04, 0x00, 0x00, 0x00, 0x01, 0x00, 0x00, 0x00,
  0x00, 0x00, 0x7f, 0x43, 0x01, 0x00, 0x00, 0x00, 0x00, 0x00, 0x00, 0x00,
  0x9e, 0xdf, 0xff, 0xff, 0x10, 0x00, 0x00, 0x00, 0x0b, 0x00, 0x00, 0x00,
  0x1c, 0x00, 0x00, 0x00, 0x38, 0x00, 0x00, 0x00, 0x04, 0x00, 0x00, 0x00,
  0x01, 0x00, 0x00, 0x00, 0x15, 0x00, 0x00, 0x00, 0x01, 0x00, 0x00, 0x00,
  0x10, 0x00, 0x00, 0x00, 0x18, 0x00, 0x00, 0x00, 0x73, 0x65, 0x71, 0x75,
  0x65, 0x6e, 0x74, 0x69, 0x61, 0x6c, 0x2f, 0x63, 0x6f, 0x6e, 0x76, 0x32,
  0x64, 0x5f, 0x31, 0x2f, 0x52, 0x65, 0x6c, 0x75, 0x00, 0x00, 0x00, 0x00,
  0xb8, 0xde, 0xff, 0xff, 0xea, 0xdf, 0xff, 0xff, 0x10, 0x00, 0x00, 0x00,
  0x0a, 0x00, 0x00, 0x00, 0x1c, 0x00, 0x00, 0x00, 0x40, 0x00, 0x00, 0x00,
  0x04, 0x00, 0x00, 0x00, 0x01, 0x00, 0x00, 0x00, 0x07, 0x00, 0x00, 0x00,
  0x01, 0x00, 0x00, 0x00, 0x10, 0x00, 0x00, 0x00, 0x22, 0x00, 0x00, 0x00,
  0x73, 0x65, 0x71, 0x75, 0x65, 0x6e, 0x74, 0x69, 0x61, 0x6c, 0x2f, 0x6d,
  0x61, 0x78, 0x5f, 0x70, 0x6f, 0x6f, 0x6c, 0x69, 0x6e, 0x67, 0x32, 0x64,
  0x5f, 0x31, 0x2f, 0x4d, 0x61, 0x78, 0x50, 0x6f, 0x6f, 0x6c, 0x00, 0x00,
  0x0c, 0xdf, 0xff, 0xff, 0x3e, 0xe0, 0xff, 0xff, 0x10, 0x00, 0x00, 0x00,
  0x09, 0x00, 0x00, 0x00, 0x14, 0x00, 0x00, 0x00, 0x2c, 0x00, 0x00, 0x00,
  0x02, 0x00, 0x00, 0x00, 0x01, 0x00, 0x00, 0x00, 0x10, 0x00, 0x00, 0x00,
  0x15, 0x00, 0x00, 0x00, 0x73, 0x65, 0x71, 0x75, 0x65, 0x6e, 0x74, 0x69,
  0x61, 0x6c, 0x2f, 0x64, 0x65, 0x6e, 0x73, 0x65, 0x2f, 0x52, 0x65, 0x6c,
  0x75, 0x00, 0x00, 0x00, 0x4c, 0xdf, 0xff, 0xff, 0x7e, 0xe0, 0xff, 0xff,
  0x10, 0x00, 0x00, 0x00, 0x08, 0x00, 0x00, 0x00, 0x14, 0x00, 0x00, 0x00,
  0x30, 0x00, 0x00, 0x00, 0x02, 0x00, 0x00, 0x00, 0x01, 0x00, 0x00, 0x00,
  0x04, 0x00, 0x00, 0x00, 0x1a, 0x00, 0x00, 0x00, 0x73, 0x65, 0x71, 0x75,
  0x65, 0x6e, 0x74, 0x69, 0x61, 0x6c, 0x2f, 0x64, 0x65, 0x6e, 0x73, 0x65,
  0x5f, 0x31, 0x2f, 0x42, 0x69, 0x61, 0x73, 0x41, 0x64, 0x64, 0x00, 0x00,
  0x90, 0xdf, 0xff, 0xff, 0xc2, 0xe0, 0xff, 0xff, 0x10, 0x00, 0x00, 0x00,
  0x07, 0x00, 0x00, 0x00, 0x14, 0x00, 0x00, 0x00, 0x20, 0x00, 0x00, 0x00,
  0x02, 0x00, 0x00, 0x00, 0x01, 0x00, 0x00, 0x00, 0x04, 0x00, 0x00, 0x00,
  0x08, 0x00, 0x00, 0x00, 0x49, 0x64, 0x65, 0x6e, 0x74, 0x69, 0x74, 0x79,
  0x00, 0x00, 0x00, 0x00, 0xc4, 0xdf, 0xff, 0xff, 0xf6, 0xe0, 0xff, 0xff,
  0x10, 0x00, 0x00, 0x00, 0x06, 0x00, 0x00, 0x00, 0x14, 0x00, 0x00, 0x00,
  0x48, 0x00, 0x00, 0x00, 0x02, 0x00, 0x00, 0x00, 0x10, 0x00, 0x00, 0x00,
  0x70, 0x00, 0x00, 0x00, 0x30, 0x00, 0x00, 0x00, 0x73, 0x65, 0x71, 0x75,
  0x65, 0x6e, 0x74, 0x69, 0x61, 0x6c, 0x2f, 0x64, 0x65, 0x6e, 0x73, 0x65,
  0x2f, 0x4d, 0x61, 0x74, 0x4d, 0x75, 0x6c, 0x2f, 0x52, 0x65, 0x61, 0x64,
  0x56, 0x61, 0x72, 0x69, 0x61, 0x62, 0x6c, 0x65, 0x4f, 0x70, 0x2f, 0x74,
  0x72, 0x61, 0x6e, 0x73, 0x70, 0x6f, 0x73, 0x65, 0x00, 0x00, 0x00, 0x00,
  0x20, 0xe0, 0xff, 0xff, 0x00, 0x1c, 0x00, 0x00, 0x0f, 0x63, 0x05, 0xbd,
  0xb8, 0x6f, 0x9d, 0xbc, 0x88, 0x7a, 0x27, 0xbe, 0x08, 0x87, 0xf2, 0x3d,
  0x4a, 0xf3, 0x0b, 0x3e, 0x10, 0x11, 0x37, 0x3e, 0xb9, 0x47, 0xea, 0xbd,
  0x0f, 0x80, 0xb8, 0xbc, 0x30, 0x6d, 0x39, 0xbd, 0xd2, 0xa6, 0x19, 0xbd,
  0x1a, 0x12, 0x07, 0xbd, 0xe6, 0x66, 0x13, 0xbe, 0x8d, 0x48, 0x51, 0xbe,
  0x76, 0x76, 0x87, 0xbe, 0x99, 0x0e, 0x8f, 0xbd, 0x7d, 0x59, 0xf6, 0xbd,
  0x89, 0x0b, 0x39, 0xbe, 0x78, 0x19, 0xba, 0xbe, 0xce, 0x63, 0x14, 0xbe,
  0x3b, 0xca, 0x9f, 0x3d, 0x20, 0x02, 0xf3, 0xbd, 0x71, 0x82, 0x37, 0xbe,
  0x69, 0xc9, 0x4e, 0xbe, 0xa3, 0x7e, 0x3d, 0x3c, 0x19, 0xb7, 0x22, 0xbd,
  0xf9, 0xd1, 0x6f, 0xbc, 0x8c, 0xd2, 0x55, 0xbe, 0xb0, 0x3b, 0xe3, 0xbd,
  0xae, 0x67, 0x8a, 0xbd, 0xa9, 0xd6, 0xba, 0xbe, 0xfe, 0x41, 0x1d, 0xbe,
  0x38, 0x7b, 0x34, 0xbe, 0x9f, 0x7b, 0x3d, 0xbe, 0x54, 0x47, 0xfe, 0xbd,
  0x20, 0x34, 0x1b, 0xbd, 0x72, 0x5a, 0x69, 0x3d, 0x34, 0x8a, 0x4d, 0xbe,
  0xca, 0x0d, 0xdb, 0xbc, 0x44, 0x0d, 0xd0, 0x3d, 0xc8, 0xfb, 0x10, 0xbe,
  0x89, 0x5a, 0x21, 0x3e, 0xf0, 0x35, 0x65, 0xbe, 0xc2, 0x63, 0x2a, 0xbe,
  0xe1, 0x9d, 0x78, 0xbe, 0xa4, 0xf3, 0x05, 0x3e, 0xe1, 0xf2, 0xc4, 0xbe,
  0x53, 0x58, 0x3c, 0x3d, 0xd7, 0x2d, 0x02, 0x3e, 0x84, 0x83, 0xd1, 0x3d,
  0xc1, 0x5b, 0x6f, 0xbc, 0x43, 0x33, 0x14, 0x3e, 0xd4, 0x48, 0x1f, 0xbe,
  0xec, 0xa1, 0xbc, 0x3c, 0xcf, 0x67, 0xbc, 0xbd, 0x3d, 0x49, 0xe5, 0x3d,
  0xd5, 0xd2, 0x17, 0xbe, 0x0e, 0x57, 0xca, 0x3c, 0xef, 0x75, 0x50, 0xbe,
  0x5d, 0x5e, 0xed, 0x3d, 0x3c, 0xc5, 0xa8, 0xbd, 0x67, 0x3f, 0x90, 0x3d,
  0x0f, 0x0d, 0xce, 0xbe, 0x81, 0x01, 0x5c, 0xbe, 0x75, 0x91, 0x66, 0xbe,
  0xa7, 0x58, 0x15, 0x3e, 0x09, 0x85, 0x9b, 0xbe, 0x5f, 0x63, 0x14, 0xbe,
  0x62, 0x32, 0xa0, 0x3c, 0xf9, 0xc5, 0xf9, 0x3c, 0x79, 0x7a, 0x27, 0xbc,
  0x41, 0x26, 0x61, 0xbe, 0x44, 0x89, 0xc9, 0xbd, 0x73, 0x23, 0x12, 0xbb,
  0xeb, 0x8f, 0x41, 0x3d, 0x11, 0xb3, 0x16, 0xbe, 0x13, 0x8d, 0xf4, 0xbd,
  0x41, 0x64, 0x79, 0xbd, 0x0d, 0x40, 0x69, 0xbe, 0xff, 0x48, 0x12, 0x3d,
  0x9a, 0x68, 0xdf, 0x3c, 0xd4, 0x33, 0x77, 0xbe, 0x15, 0xa4, 0x72, 0xbe,
  0x29, 0x7b, 0xa3, 0xbd, 0x2f, 0xae, 0x52, 0xbe, 0x11, 0x4b, 0x13, 0xbd,
  0x9b, 0x06, 0xe0, 0xbd, 0x75, 0xf3, 0xae, 0x3d, 0x67, 0x2a, 0x91, 0x3d,
  0x1d, 0x08, 0x3d, 0xbe, 0xf1, 0xd8, 0xfb, 0x3d, 0xd2, 0x83, 0x6d, 0xbe,
  0x95, 0x36, 0xbb, 0x3d, 0x20, 0xec, 0x02, 0xbe, 0x5d, 0xd1, 0x98, 0xbe,
  0x33, 0xd2, 0x2d, 0xbe, 0xa8, 0x3d, 0xc4, 0xbd, 0x87, 0xd4, 0x4f, 0xbd,
  0x1e, 0x3e, 0x06, 0xbe, 0x3b, 0x9a, 0xdb, 0xbd, 0xf2, 0xb6, 0xc3, 0x3c,
  0xa5, 0x38, 0x40, 0xbe, 0x76, 0x4a, 0xde, 0xbd, 0x8b, 0x1e, 0x87, 0xbe,
  0xc6, 0x88, 0xe9, 0x3d, 0xd8, 0x7c, 0x42, 0x3d, 0x76, 0xc8, 0x0c, 0xbe,
  0x75, 0x1f, 0x5f, 0xbe, 0x87, 0xb7, 0xf5, 0xbd, 0xc2, 0x44, 0xb9, 0xbe,
  0xea, 0x4e, 0xb9, 0xbe, 0x00, 0x67, 0x26, 0xbe, 0x33, 0x37, 0x61, 0x3d,
  0x0b, 0xa9, 0x54, 0x3e, 0x78, 0xda, 0x9a, 0xbe, 0x94, 0x78, 0xbd, 0x3d,
  0x06, 0xc8, 0xc0, 0xbd, 0x31, 0x87, 0x61, 0x3d, 0xf6, 0x67, 0xa2, 0x3d,
  0x0e, 0x58, 0x7e, 0xbd, 0x94, 0x49, 0x9c, 0x3d, 0xb2, 0x42, 0xa7, 0x3d,
  0x97, 0xef, 0x04, 0x3e, 0x0e, 0x2f, 0x6f, 0xbc, 0x29, 0x67, 0xa1, 0xbc,
  0xf9, 0xa7, 0xae, 0x3d, 0x69, 0x02, 0x41, 0x3a, 0xa7, 0xbe, 0xf9, 0xbd,
  0x87, 0x38, 0x15, 0x3e, 0x83, 0x09, 0x02, 0x3e, 0xcb, 0xe4, 0x74, 0xbe,
  0x8a, 0xfb, 0xc7, 0xbe, 0xd9, 0x58, 0x53, 0x3c, 0x2d, 0x71, 0x80, 0x3e,
  0x1e, 0xe3, 0x88, 0xbe, 0x84, 0x89, 0x73, 0xbe, 0x24, 0xa4, 0x4d, 0x3d,
  0x00, 0x7e, 0x07, 0x3d, 0xd7, 0x60, 0x42, 0x3e, 0xb9, 0x73, 0xb4, 0xbc,
  0xf4, 0x18, 0x96, 0xbd, 0x18, 0x33, 0xc1, 0x3d, 0xe2, 0x7e, 0x4f, 0xbc,
  0x17, 0x4f, 0x8d, 0xbe, 0x60, 0xc6, 0x84, 0x3e, 0xde, 0x8c, 0x27, 0xbc,
  0x2f, 0x35, 0xd5, 0xbe, 0x2f, 0x15, 0xf3, 0xbd, 0x0b, 0xe2, 0xfb, 0x3d,
  0x2d, 0x56, 0x36, 0xbe, 0x35, 0x1c, 0xa3, 0xbe, 0xbc, 0xcf, 0x0e, 0xbe,
  0x65, 0xda, 0x22, 0x3c, 0xb0, 0xaf, 0x83, 0xbd, 0xc8, 0xac, 0xd1, 0xbc,
  0x60, 0x1b, 0x52, 0xbb, 0x9f, 0x07, 0x31, 0xbe, 0x0a, 0x4a, 0xc3, 0x3d,
  0x00, 0x72, 0xe3, 0xbc, 0xa5, 0x58, 0xad, 0xbe, 0x30, 0x96, 0x7c, 0x3e,
  0x81, 0xde, 0x41, 0xbe, 0x99, 0xd5, 0xe6, 0xbe, 0x95, 0x59, 0xa3, 0xbd,
  0x10, 0x3c, 0xb5, 0xbe, 0x7f, 0xd3, 0xeb, 0xbd, 0x1e, 0x53, 0x53, 0xbe,
  0x23, 0x48, 0xb8, 0xbe, 0xec, 0x59, 0x13, 0x3e, 0xa5, 0x22, 0x18, 0xbe,
  0x5c, 0x81, 0xb0, 0xbd, 0x47, 0x3d, 0x1f, 0xbd, 0xc8, 0xc1, 0x26, 0xbe,
  0x89, 0x7d, 0x3d, 0x3d, 0x0f, 0x1d, 0x2c, 0xbd, 0xd3, 0x2a, 0xc1, 0xbe,
  0x30, 0xc1, 0x49, 0x3e, 0xa6, 0xbf, 0x87, 0xbc, 0x74, 0x72, 0xea, 0xbd,
  0x7d, 0xcf, 0xe0, 0xbd, 0x24, 0x60, 0xc5, 0xbd, 0xfe, 0x1d, 0x70, 0xbe,
  0x88, 0x21, 0xbf, 0xbd, 0xd1, 0x12, 0xcb, 0xbe, 0xe1, 0xe8, 0x76, 0x3e,
  0x9e, 0x32, 0xe2, 0x3d, 0xc5, 0x47, 0x88, 0x3e, 0x3b, 0x5f, 0xf9, 0xbd,
  0x47, 0x72, 0x10, 0xbe, 0x3e, 0xfe, 0x2a, 0x3c, 0xcb, 0x24, 0x0c, 0x3d,
  0x29, 0x45, 0x46, 0xbd, 0x90, 0xd0, 0x22, 0x3e, 0xf5, 0x21, 0x05, 0x3e,
  0x9f, 0x43, 0x58, 0xbe, 0xa1, 0x4f, 0xdd, 0x3c, 0x39, 0x03, 0x8d, 0xbb,
  0xa0, 0xf6, 0x74, 0x3e, 0x3d, 0x45, 0x2e, 0xbd, 0x04, 0x46, 0xda, 0xbe,
  0x89, 0x29, 0xf0, 0x3d, 0x6b, 0x8b, 0x76, 0x3e, 0x09, 0xc9, 0x68, 0x3e,
  0x32, 0x19, 0xf2, 0x3c, 0x2d, 0x89, 0x95, 0xbd, 0xa1, 0xb8, 0x01, 0x3d,
  0x9c, 0xe4, 0x75, 0x3d, 0x76, 0x0e, 0x67, 0x3d, 0x81, 0xfc, 0xc2, 0x3d,
  0xe2, 0xcc, 0x04, 0x3d, 0x8c, 0x6f, 0x54, 0x3e, 0x15, 0x71, 0x44, 0x3c,
  0xd3, 0x2f, 0x2c, 0x3c, 0x00, 0x8b, 0xfe, 0x3c, 0xa3, 0xff, 0xa9, 0x3c,
  0xd7, 0xa1, 0x64, 0xbd, 0xe4, 0xe5, 0xe1, 0x3d, 0xd3, 0x0d, 0xc2, 0x3d,
  0x8a, 0x49, 0x02, 0x3e, 0x72, 0x7b, 0x3d, 0x3d, 0x74, 0xea, 0x5e, 0xbd,
  0x92, 0xb7, 0x72, 0x3c, 0x34, 0x74, 0xf6, 0x3b, 0x6b, 0x69, 0xbc, 0x3d,
  0x2f, 0x24, 0xa2, 0x3d, 0x5f, 0x66, 0x98, 0xbc, 0xca, 0xfb, 0x8e, 0x3c,
  0xbd, 0x21, 0x62, 0x3d, 0x1a, 0xb7, 0x26, 0xbf, 0xd1, 0x3b, 0x0d, 0xbe,
  0x9c, 0xce, 0x41, 0x3e, 0x6a, 0x22, 0x1a, 0xbe, 0xde, 0xf0, 0x52, 0x3d,
  0xb4, 0x4d, 0xf5, 0xbd, 0x70, 0x96, 0x32, 0xbe, 0x9e, 0x5a, 0x7e, 0xbe,
  0x3a, 0x02, 0x6d, 0xbe, 0xd2, 0x5c, 0xf6, 0x3d, 0xeb, 0xc1, 0xdb, 0xbc,
  0xe5, 0x96, 0xb4, 0xbd, 0x62, 0xc7, 0x8a, 0x3e, 0x08, 0x08, 0x8f, 0xbd,
  0x31, 0xe1, 0x4e, 0x3d, 0x3b, 0x06, 0x21, 0xbe, 0x10, 0xb7, 0x88, 0xbe,
  0x16, 0xb5, 0x6e, 0xbd, 0x92, 0xf6, 0x62, 0xbe, 0xcf, 0xb3, 0x29, 0xbe,
  0xf7, 0xfc, 0x8a, 0x3e, 0xf1, 0xb1, 0x44, 0xbd, 0xe8, 0xe5, 0x53, 0x3e,
  0x74, 0x25, 0x88, 0xbe, 0xc7, 0x61, 0x60, 0xbe, 0xcd, 0xa7, 0xaf, 0x3d,
  0xe3, 0xc4, 0x81, 0x3c, 0x61, 0xc2, 0x60, 0xba, 0x50, 0x56, 0xc6, 0x3e,
  0x35, 0xa6, 0x70, 0x3e, 0x34, 0x13, 0x15, 0xbd, 0x0e, 0x50, 0x95, 0xbd,
  0xf0, 0xae, 0x40, 0xbe, 0x55, 0x8b, 0x34, 0x3b, 0x00, 0x59, 0x26, 0xbe,
  0x9a, 0xbd, 0x00, 0xbf, 0x7a, 0x60, 0xcc, 0x3e, 0xc6, 0x00, 0x22, 0x3e,
  0xc5, 0xb8, 0x83, 0x3e, 0x79, 0x13, 0xc6, 0x3d, 0x06, 0x74, 0x85, 0xbd,
  0x76, 0x23, 0xdb, 0x3d, 0xac, 0xb8, 0x98, 0x3d, 0x3a, 0x3d, 0xad, 0xbd,
  0x5e, 0x9a, 0xd9, 0x3e, 0x53, 0x2c, 0x33, 0x3e, 0xd3, 0x12, 0xe9, 0xbd,
  0x68, 0x2d, 0x66, 0xbe, 0x69, 0xad, 0xef, 0xbd, 0x18, 0x5b, 0x8a, 0x3e,
  0xc3, 0x70, 0xb2, 0xbd, 0x59, 0xeb, 0xac, 0xbe, 0xd6, 0x0d, 0xeb, 0x3e,
  0x0b, 0x3b, 0xfa, 0x3c, 0xf9, 0x15, 0x66, 0xbd, 0x0e, 0x9e, 0x00, 0x3d,
  0xac, 0x58, 0xf1, 0xbd, 0x6e, 0x32, 0xf7, 0x3d, 0xa6, 0x3a, 0x31, 0x3d,
  0x19, 0x3f, 0xcf, 0x3c, 0x8b, 0x06, 0x8d, 0x3e, 0x55, 0xbc, 0x93, 0xbc,
  0xfc, 0xcf, 0xed, 0x3a, 0x27, 0x32, 0x2c, 0x3d, 0x0c, 0x22, 0x6d, 0xbe,
  0x0e, 0x3d, 0x92, 0x3e, 0x10, 0xbf, 0xbd, 0xbd, 0x56, 0x88, 0x8d, 0xbe,
  0x64, 0xbd, 0x56, 0x3e, 0x37, 0x01, 0xb9, 0xbe, 0x31, 0xf2, 0xda, 0xbd,
  0x7f, 0x7f, 0x87, 0xbd, 0xa4, 0x8b, 0xe6, 0xbe, 0x0d, 0xd6, 0x81, 0x3d,
  0x3f, 0xda, 0x44, 0xbc, 0x2f, 0x78, 0xc1, 0x3b, 0x56, 0xef, 0xd4, 0x3e,
  0xe0, 0x11, 0x9e, 0xbe, 0x7e, 0xc2, 0x1b, 0x3e, 0xe9, 0x2d, 0xa0, 0x3e,
  0xb4, 0xd1, 0x76, 0xbe, 0x79, 0x06, 0xd7, 0xbd, 0xbd, 0x5b, 0x87, 0xbd,
  0x6c, 0xba, 0xdf, 0xbd, 0x3b, 0x30, 0x3b, 0x3e, 0xf3, 0x82, 0x68, 0xbe,
  0xa8, 0x2a, 0x76, 0xbe, 0x37, 0x77, 0xd0, 0xbd, 0x00, 0xa8, 0xbf, 0xbe,
  0xb8, 0x4f, 0x28, 0x3e, 0xf1, 0xaa, 0xf1, 0xba, 0xc1, 0xd4, 0xca, 0xbd,
  0x07, 0x6a, 0x05, 0x3f, 0x08, 0xf4, 0x08, 0xbd, 0x49, 0x52, 0x54, 0x3d,
  0xb9, 0xc0, 0x5f, 0x3e, 0xfc, 0x29, 0x3f, 0xbe, 0xe8, 0xfe, 0x00, 0xbe,
  0x0b, 0x69, 0x66, 0xbc, 0x8c, 0x09, 0x84, 0xbb, 0xe5, 0x8f, 0xbd, 0x3d,
  0xee, 0x1e, 0xf4, 0xbc, 0xda, 0x7a, 0x61, 0xbd, 0xe3, 0x7f, 0x05, 0xbe,
  0x64, 0x0e, 0xf6, 0xbd, 0xbd, 0xb5, 0x12, 0xbc, 0x5a, 0xfe, 0x8d, 0xbd,
  0x45, 0x68, 0x70, 0x3d, 0x6e, 0xe9, 0xe4, 0x3d, 0x6c, 0x3c, 0x16, 0x3c,
  0xbb, 0xaa, 0x27, 0x3d, 0xf6, 0xbe, 0xa0, 0x3d, 0x8a, 0x6d, 0xa8, 0xbe,
  0x44, 0x27, 0x01, 0xbe, 0x6f, 0x40, 0x61, 0x3d, 0x69, 0x04, 0x89, 0xbe,
  0xe8, 0x38, 0x87, 0x3d, 0xef, 0x8d, 0xc8, 0xbd, 0x1f, 0xee, 0x7d, 0x3c,
  0xef, 0xd5, 0xdb, 0xbe, 0x5b, 0x5c, 0x50, 0x3c, 0x96, 0x52, 0xf9, 0xbd,
  0x61, 0x89, 0xee, 0xbd, 0x19, 0x30, 0xe3, 0x3c, 0xb9, 0x4b, 0x19, 0xbd,
  0x83, 0x40, 0xb2, 0x3d, 0xea, 0xa1, 0x54, 0x3d, 0x16, 0x44, 0x67, 0x3e,
  0x45, 0xf1, 0xd9, 0xbd, 0x4d, 0x0f, 0x6d, 0xbd, 0xc7, 0xf0, 0xf7, 0xbd,
  0x18, 0xe8, 0x80, 0x3d, 0x7a, 0x04, 0x1a, 0x3e, 0xd5, 0x6b, 0x8d, 0x3d,
  0x9f, 0x32, 0x03, 0x3e, 0x0b, 0x35, 0xe4, 0xbc, 0x1d, 0x3a, 0x6a, 0xbd,
  0xb2, 0x6f, 0x37, 0xbe, 0xf4, 0x6e, 0x03, 0xbf, 0x95, 0x7b, 0x0a, 0x3e,
  0xbc, 0x3c, 0x26, 0xbd, 0x81, 0xde, 0x33, 0xbe, 0x3e, 0xdc, 0xc7, 0x3d,
  0x6d, 0x30, 0xaa, 0x3d, 0x4e, 0xac, 0x1a, 0xbe, 0x11, 0x4d, 0x69, 0x3b,
  0x9e, 0x33, 0x53, 0xbd, 0x9b, 0x5e, 0x66, 0xbe, 0xd8, 0x66, 0xe4, 0xbd,
  0x99, 0xc9, 0xfb, 0xbd, 0xe1, 0x9c, 0x09, 0x3e, 0x31, 0x62, 0x8d, 0x3d,
  0x94, 0x0d, 0x40, 0xbe, 0x20, 0x04, 0xfc, 0xbc, 0xd5, 0xf5, 0x0e, 0xbe,
  0x68, 0x3b, 0x3f, 0x3d, 0xc6, 0x67, 0x7d, 0xbe, 0x57, 0x57, 0x54, 0xbd,
  0x25, 0x62, 0x16, 0x3d, 0xc3, 0xda, 0x81, 0x3d, 0x3b, 0xc2, 0xe0, 0xbd,
  0x3f, 0x70, 0x0b, 0x3e, 0x20, 0x18, 0x34, 0xbe, 0xca, 0x00, 0x5e, 0xbe,
  0xa4, 0xfc, 0x11, 0x3e, 0xad, 0x3a, 0x66, 0xbb, 0x71, 0x80, 0x4d, 0x3c,
  0x7f, 0x25, 0xa2, 0xbd, 0xae, 0x2d, 0x7b, 0x3c, 0x94, 0x1d, 0xce, 0x3d,
  0x8d, 0x6f, 0x51, 0xbe, 0x22, 0x04, 0xe4, 0x3d, 0x8a, 0x43, 0x71, 0xbd,
  0x6f, 0x06, 0x85, 0xbd, 0xa4, 0x8c, 0x89, 0x3d, 0xcc, 0x1d, 0x71, 0x3e,
  0xc9, 0x2f, 0xc3, 0xbd, 0x20, 0x3e, 0x13, 0x3e, 0xda, 0x1e, 0xd1, 0x3b,
  0xdb, 0xac, 0xe0, 0x3d, 0x49, 0x22, 0x12, 0x3c, 0x99, 0x86, 0x21, 0xbe,
  0x24, 0x2c, 0xc3, 0x3d, 0xcf, 0xa1, 0x9b, 0xbd, 0x76, 0xce, 0xb2, 0xbe,
  0xde, 0xa6, 0xb8, 0x3d, 0xb7, 0xda, 0x22, 0xbe, 0x35, 0xb4, 0x37, 0x3d,
  0x13, 0xde, 0x99, 0xbd, 0x63, 0xfd, 0x0f, 0xbd, 0xdf, 0x88, 0xa3, 0x3c,
  0x61, 0x3e, 0xb7, 0x3b, 0x6a, 0x95, 0x84, 0xbe, 0x7b, 0x67, 0xa1, 0x3c,
  0x1e, 0x54, 0x9d, 0xbd, 0x2f, 0x52, 0xb2, 0xbd, 0x59, 0xbd, 0x08, 0xbe,
  0x8a, 0x78, 0x27, 0x3d, 0xf7, 0xdb, 0x1b, 0x3b, 0xa2, 0x1f, 0xb8, 0xbd,
  0x1e, 0xbe, 0x82, 0x3b, 0xf8, 0xe5, 0x30, 0xbe, 0xdc, 0x3f, 0x0f, 0xbf,
  0x20, 0xe6, 0x80, 0xbc, 0x4e, 0xca, 0xfa, 0x3d, 0x52, 0x0c, 0x24, 0xbd,
  0xa3, 0x73, 0x8a, 0x3e, 0x18, 0x68, 0x85, 0x3d, 0x0a, 0x2e, 0x36, 0xbe,
  0x2e, 0xbe, 0x8e, 0x3d, 0x92, 0x1f, 0xa2, 0x3d, 0xaf, 0xf4, 0x0d, 0x3d,
  0xeb, 0xf4, 0x04, 0xbd, 0xd5, 0xdf, 0x14, 0xbe, 0xbd, 0x99, 0xf1, 0xbd,
  0x58, 0x67, 0x08, 0xbe, 0xf5, 0xd3, 0xb2, 0x3c, 0x61, 0x0c, 0xdb, 0xbd,
  0x91, 0x86, 0x97, 0xbe, 0x11, 0x13, 0xc4, 0x3d, 0xdb, 0xc2, 0xcb, 0xbb,
  0x1d, 0x23, 0x55, 0x3e, 0x23, 0xc7, 0x90, 0xbe, 0xb9, 0x13, 0x91, 0xbe,
  0x63, 0x4b, 0x74, 0x3b, 0x7a, 0xe8, 0xba, 0x3e, 0x4f, 0x3b, 0xb2, 0xbe,
  0xa0, 0x5f, 0x0f, 0x3d, 0x55, 0x8a, 0xfe, 0x3c, 0x4d, 0x07, 0xc0, 0x3d,
  0x4d, 0xc2, 0x20, 0x3d, 0xd6, 0xaa, 0xcd, 0x3a, 0x97, 0xfe, 0x07, 0x3d,
  0xac, 0xde, 0x46, 0x3e, 0x08, 0x85, 0x16, 0xbe, 0x05, 0x64, 0x85, 0xbd,
  0x8d, 0xdc, 0x4a, 0x3e, 0xbe, 0x31, 0x84, 0x3e, 0xd3, 0xca, 0x06, 0xbd,
  0x33, 0xb3, 0x88, 0x3c, 0x34, 0x9a, 0x10, 0xbe, 0xe8, 0xd7, 0x1f, 0xbd,
  0xb9, 0x44, 0xd7, 0xbd, 0xde, 0x57, 0xbb, 0x3e, 0xa8, 0x4a, 0x67, 0x3d,
  0x85, 0x8b, 0x58, 0xbe, 0x02, 0xa4, 0x08, 0x3e, 0x23, 0x5d, 0xc8, 0xbd,
  0x68, 0x3d, 0xee, 0xbc, 0x8e, 0x52, 0xd3, 0xbd, 0x8d, 0xb0, 0x77, 0xbe,
  0x27, 0x9d, 0x8c, 0xbe, 0x18, 0x90, 0x38, 0x3e, 0x04, 0x75, 0x5d, 0xbe,
  0x22, 0x05, 0xa7, 0xbe, 0x34, 0xd4, 0x13, 0x3e, 0x9d, 0x75, 0x8d, 0xbc,
  0x5d, 0xe5, 0xc0, 0xbd, 0x85, 0x5f, 0x08, 0xbd, 0x43, 0x76, 0x44, 0x3e,
  0x13, 0x53, 0xeb, 0x3c, 0x02, 0x4d, 0x10, 0x3e, 0x2f, 0xb4, 0xff, 0xbc,
  0xcf, 0x46, 0x18, 0xbe, 0x5d, 0x74, 0x5e, 0xbe, 0xa2, 0x2e, 0x0a, 0xbe,
  0x2e, 0x18, 0x8d, 0xbe, 0x40, 0xa7, 0x55, 0xbe, 0xdd, 0x0d, 0xfd, 0x3e,
  0xe7, 0xb7, 0x63, 0xbe, 0x04, 0xac, 0x6f, 0xbe, 0xea, 0x13, 0x2e, 0x3c,
  0x46, 0x72, 0x20, 0xbd, 0xee, 0xaf, 0xc5, 0x3d, 0x65, 0xef, 0x80, 0xbe,
  0xb3, 0x9d, 0xa6, 0x3e, 0xb7, 0xf2, 0x88, 0xbd, 0x75, 0xe7, 0x03, 0x3e,
  0x63, 0x87, 0x6d, 0xbc, 0x58, 0x72, 0xb1, 0xbe, 0x38, 0xde, 0x29, 0xbe,
  0x81, 0x97, 0x0b, 0xbe, 0x73, 0xe9, 0x8a, 0xbe, 0x25, 0x8a, 0x8f, 0xbb,
  0x61, 0x15, 0x65, 0x3f, 0xb3, 0xa1, 0xc5, 0xbc, 0x8e, 0x5e, 0x5c, 0xbe,
  0x21, 0x29, 0x1c, 0xbd, 0xe4, 0x85, 0x25, 0xbe, 0x51, 0xd8, 0x5d, 0xbd,
  0x75, 0x03, 0xea, 0xbb, 0xcd, 0x9b, 0x05, 0x3e, 0xe1, 0x42, 0x20, 0x3e,
  0xe5, 0xbf, 0x83, 0x3d, 0x97, 0x1c, 0x67, 0xbc, 0x07, 0xea, 0x3a, 0xbe,
  0xad, 0x2f, 0x25, 0xbd, 0x65, 0xcc, 0x92, 0xbc, 0xa0, 0x30, 0xd4, 0xbd,
  0x9d, 0x44, 0x57, 0x3d, 0x40, 0x6e, 0xdf, 0x3e, 0xeb, 0x26, 0x46, 0x3e,
  0x55, 0xf1, 0x99, 0xbe, 0xc3, 0x09, 0xa6, 0xbe, 0xee, 0x5f, 0x6f, 0x3c,
  0x96, 0x1d, 0xe9, 0x3d, 0x2a, 0xf6, 0xb0, 0xbe, 0x81, 0x16, 0x71, 0x3e,
  0x6d, 0x16, 0xfc, 0x3d, 0xd6, 0x82, 0x89, 0x3e, 0xdb, 0x3a, 0xbf, 0x3e,
  0xde, 0x8b, 0x74, 0x3d, 0x32, 0x97, 0x74, 0x3d, 0x2e, 0xe6, 0x38, 0xbe,
  0x85, 0xa1, 0x26, 0xbe, 0x53, 0xe3, 0x6f, 0x3e, 0xef, 0xa2, 0x16, 0x3f,
  0x50, 0x50, 0x57, 0xbe, 0xeb, 0xf5, 0x58, 0xbe, 0x29, 0x29, 0xa6, 0xbe,
  0x99, 0x9a, 0x86, 0xbe, 0x96, 0x0d, 0x63, 0x3e, 0x23, 0xee, 0xb3, 0xbe,
  0x78, 0xe9, 0xf9, 0xbd, 0xc3, 0xf5, 0x5e, 0xbd, 0x2a, 0xd6, 0x23, 0xbe,
  0xf2, 0x46, 0xa0, 0xbd, 0xfc, 0x44, 0x05, 0xbe, 0x6b, 0x48, 0xdc, 0xbd,
  0x62, 0xe3, 0xb6, 0xbd, 0x47, 0xc0, 0xd9, 0xbd, 0x2f, 0xd1, 0x1e, 0x3d,
  0x4b, 0x2a, 0x2d, 0x3e, 0xf0, 0xa3, 0x9d, 0xbd, 0x32, 0x12, 0x32, 0xbd,
  0x2f, 0xbe, 0x3f, 0xbe, 0xda, 0xdf, 0x23, 0x3e, 0xd0, 0x02, 0x00, 0x3c,
  0x4b, 0xca, 0xfa, 0xbd, 0xe4, 0x71, 0x39, 0xbe, 0xa0, 0x80, 0xe4, 0xbc,
  0x9d, 0xed, 0x10, 0xbe, 0xf8, 0x2b, 0x73, 0xbe, 0xfb, 0x35, 0x1a, 0xbe,
  0x50, 0xa7, 0xa4, 0xbd, 0x10, 0xe6, 0x8f, 0xbd, 0xa2, 0x94, 0x2b, 0x3e,
  0x09, 0xc5, 0xcd, 0xbd, 0x26, 0xfd, 0x98, 0xbe, 0x78, 0xa2, 0x21, 0xbe,
  0xde, 0x83, 0x46, 0xbc, 0xac, 0xfe, 0x28, 0xbe, 0x22, 0x1a, 0x46, 0x3e,
  0x84, 0xbd, 0xa0, 0x3c, 0xc4, 0x53, 0xdb, 0xbe, 0xcb, 0xfe, 0x9c, 0xbd,
  0xac, 0xf8, 0xaa, 0xbd, 0x09, 0x94, 0x8c, 0x3d, 0xf7, 0x46, 0xb0, 0x3d,
  0x33, 0x59, 0x0c, 0xbe, 0x22, 0x7d, 0x21, 0xbe, 0x63, 0xa7, 0x85, 0xbe,
  0x9b, 0x4f, 0xe3, 0xbd, 0x5f, 0xd5, 0x81, 0xbe, 0x93, 0x59, 0x8c, 0x3d,
  0xf5, 0x9a, 0x86, 0x3e, 0x93, 0xbc, 0xab, 0x3d, 0x68, 0xb7, 0xcd, 0xbc,
  0xba, 0xf5, 0xa6, 0xbd, 0x6a, 0xf2, 0xab, 0x3e, 0x41, 0xb4, 0xbd, 0xbe,
  0x4a, 0x3c, 0xbf, 0x3c, 0x1b, 0x19, 0xc2, 0x3a, 0xfb, 0xc8, 0x91, 0x3d,
  0x47, 0xa4, 0xab, 0x3d, 0x6b, 0x8a, 0x4f, 0xbd, 0x91, 0xe6, 0x5c, 0x3e,
  0x42, 0xef, 0xf0, 0xbe, 0x70, 0x4f, 0x38, 0xbe, 0x71, 0x87, 0x2e, 0xbc,
  0xde, 0x89, 0xa5, 0x3d, 0x52, 0x2c, 0xf5, 0xbd, 0xe7, 0xca, 0x45, 0xbe,
  0xf5, 0x6a, 0xa0, 0xbd, 0x98, 0xb9, 0x92, 0xbc, 0xab, 0x76, 0x65, 0xbe,
  0x71, 0xb2, 0xa1, 0xbe, 0xe3, 0x61, 0x58, 0x3e, 0x62, 0xb8, 0x3e, 0xbe,
  0x61, 0xed, 0xac, 0xbd, 0x67, 0x2b, 0x4b, 0x3d, 0x55, 0xd3, 0xe1, 0xbd,
  0x61, 0xc8, 0xff, 0x3d, 0x1d, 0xbb, 0x00, 0xbe, 0x25, 0xb2, 0x46, 0xbe,
  0x43, 0xe0, 0x41, 0xbc, 0x52, 0xef, 0x23, 0xbe, 0x75, 0x03, 0x89, 0xbd,
  0xb6, 0x80, 0xa8, 0xbe, 0xc8, 0xba, 0xd1, 0xbd, 0x7d, 0x17, 0x40, 0xbe,
  0x3d, 0x08, 0x14, 0x3e, 0x4f, 0x1b, 0x0e, 0xbe, 0x95, 0xe2, 0x08, 0xbc,
  0x33, 0x23, 0xe3, 0x3d, 0xa1, 0xb4, 0x4f, 0xbe, 0x28, 0x3d, 0x44, 0xbd,
  0x20, 0x2a, 0xe7, 0xbc, 0xb2, 0x7f, 0x72, 0xbe, 0x4f, 0x13, 0x85, 0xbe,
  0x38, 0x63, 0x0b, 0xbe, 0x4f, 0x06, 0x92, 0xbe, 0x12, 0xcd, 0x91, 0x3d,
  0x2e, 0xcd, 0xae, 0x3e, 0x97, 0xb0, 0x87, 0xbd, 0xa6, 0x78, 0xb1, 0xbe,
  0x0e, 0xc4, 0x07, 0xbe, 0x9e, 0xa9, 0x04, 0xbc, 0x64, 0xf0, 0xd4, 0xbe,
  0x51, 0xd9, 0x9f, 0xbc, 0x7c, 0xe1, 0xa2, 0xbe, 0x8e, 0x76, 0xeb, 0xbd,
  0x84, 0xb0, 0xa4, 0xbd, 0x17, 0x16, 0xfb, 0xbd, 0x3a, 0xd8, 0x38, 0xbd,
  0x0b, 0x5f, 0x24, 0xbe, 0x2c, 0x44, 0x7e, 0xbe, 0x48, 0x0c, 0x89, 0x3d,
  0x2e, 0x30, 0x06, 0xbe, 0x11, 0x83, 0x0c, 0xbc, 0x1c, 0x56, 0x11, 0x3e,
  0x9a, 0x12, 0xd9, 0xbd, 0x56, 0x1f, 0x8b, 0xbc, 0xc5, 0x88, 0x22, 0xbe,
  0x90, 0x91, 0x84, 0xbe, 0x30, 0x43, 0x89, 0x3d, 0xfb, 0x6a, 0x3a, 0x3e,
  0x24, 0xf0, 0x0a, 0xbe, 0xa8, 0x86, 0xfc, 0xbd, 0xfb, 0x30, 0x1f, 0x3b,
  0x55, 0x11, 0x28, 0xbe, 0x85, 0xef, 0xa6, 0xbe, 0x72, 0x86, 0xaa, 0xbd,
  0x99, 0xf9, 0x55, 0xbe, 0xfe, 0x95, 0xc0, 0x3d, 0x9d, 0xa0, 0x82, 0xbe,
  0x73, 0xed, 0x18, 0xbf, 0x07, 0x8c, 0x66, 0x3e, 0xf5, 0x96, 0x41, 0xbf,
  0x3c, 0xb6, 0x87, 0xbd, 0x3c, 0x98, 0x90, 0x3d, 0x9c, 0x42, 0x8f, 0xbc,
  0xa0, 0x7d, 0x0c, 0x3d, 0x5a, 0x13, 0x10, 0xbe, 0x07, 0xd5, 0x82, 0xbe,
  0x4c, 0x1c, 0x06, 0xbe, 0x29, 0xa2, 0x07, 0x3a, 0x4b, 0x3c, 0x12, 0x3d,
  0x0c, 0x49, 0x34, 0x3d, 0x12, 0x7f, 0x08, 0xbf, 0xbd, 0xe2, 0x99, 0x3e,
  0x74, 0xed, 0x14, 0xbe, 0xf2, 0x2f, 0x23, 0xbe, 0xb1, 0x2e, 0xe6, 0xbd,
  0xdb, 0x68, 0x57, 0xbe, 0x96, 0xd2, 0x0f, 0xbe, 0xc1, 0xad, 0x63, 0x3c,
  0x67, 0xd0, 0x3d, 0xbc, 0x34, 0xc8, 0x8a, 0x3d, 0xbf, 0x14, 0x01, 0xbd,
  0xee, 0x10, 0x0b, 0xbe, 0x4d, 0x36, 0x0e, 0xbe, 0xe5, 0x8f, 0x9f, 0x3d,
  0x50, 0x09, 0x8a, 0x3c, 0x96, 0xcf, 0x29, 0x3d, 0x9a, 0x6b, 0xd7, 0xbd,
  0x0f, 0x01, 0x81, 0x3e, 0x5a, 0x94, 0x9b, 0xbb, 0x23, 0x39, 0x47, 0xbe,
  0x1b, 0xb9, 0x3d, 0x3b, 0xae, 0xc6, 0x02, 0x3e, 0x50, 0x4d, 0xeb, 0x3d,
  0x69, 0x20, 0xf1, 0x3c, 0xd4, 0xbc, 0x61, 0xbd, 0xef, 0xea, 0x2c, 0x3e,
  0xf3, 0x7d, 0x20, 0x3e, 0x2d, 0x8d, 0x1e, 0xbd, 0xd0, 0x21, 0x4b, 0xbd,
  0xca, 0xe1, 0x85, 0x3d, 0x8c, 0x7a, 0x99, 0x3c, 0x3c, 0x2f, 0x10, 0x3d,
  0x09, 0x6b, 0xd9, 0xbc, 0x41, 0xda, 0x97, 0x3e, 0x6b, 0x2f, 0x54, 0x3d,
  0xcd, 0x3f, 0xc2, 0xbe, 0x74, 0x9f, 0x27, 0x3d, 0x0f, 0x18, 0x10, 0xbe,
  0x4e, 0x9f, 0x04, 0x3e, 0xec, 0x6e, 0xa2, 0x3c, 0x2d, 0x64, 0xa3, 0x3d,
  0xb5, 0x99, 0x70, 0x3e, 0xe2, 0x89, 0xa3, 0xbd, 0x64, 0xbe, 0xac, 0x3d,
  0xbb, 0xfc, 0xad, 0xbd, 0xdc, 0xd2, 0x51, 0x3c, 0x09, 0x2d, 0xfa, 0x3c,
  0x57, 0xec, 0x4c, 0x3d, 0x4c, 0xbb, 0x25, 0x3b, 0xc1, 0x1a, 0x8d, 0x3e,
  0xa4, 0xd8, 0xaa, 0xbd, 0xc1, 0x4a, 0x94, 0x3d, 0x37, 0xeb, 0x0f, 0x3e,
  0x70, 0xdb, 0x7a, 0xbe, 0x6b, 0x10, 0x59, 0x3e, 0x56, 0xc3, 0xba, 0x3d,
  0x98, 0xdc, 0x73, 0x3d, 0x5c, 0x00, 0x89, 0x3d, 0x4d, 0xad, 0xd0, 0xbe,
  0xb9, 0xcf, 0x8d, 0xbe, 0xa8, 0x35, 0x98, 0xbd, 0xad, 0xca, 0xf0, 0xbc,
  0xa5, 0x32, 0x5b, 0x3d, 0x5e, 0x0c, 0x9c, 0xbc, 0x7c, 0x5d, 0x77, 0xbe,
  0x9d, 0x1b, 0xf7, 0x3e, 0xcc, 0x8d, 0x81, 0xbe, 0x27, 0xf1, 0x5d, 0xbd,
  0xc1, 0xdd, 0x8b, 0x3e, 0xb4, 0x60, 0x88, 0xbe, 0x6b, 0x5b, 0xa8, 0xbd,
  0x6d, 0x79, 0x16, 0x3c, 0x50, 0xfb, 0x91, 0x3d, 0x34, 0x0d, 0x1d, 0x3c,
  0x1e, 0xca, 0x6c, 0xbe, 0xf3, 0x3c, 0x4a, 0xbe, 0x87, 0xed, 0x1a, 0xbe,
  0xa4, 0x6a, 0x91, 0xbc, 0xda, 0xfa, 0x15, 0x3d, 0x7d, 0x8c, 0x86, 0x3b,
  0xfb, 0x44, 0x3f, 0xbe, 0xe4, 0xc5, 0xb2, 0x3e, 0xa8, 0x3e, 0x6e, 0xbc,
  0x00, 0x7d, 0x60, 0xbe, 0x0d, 0x30, 0xba, 0x3c, 0x2c, 0x5f, 0x31, 0xbd,
  0x55, 0xcd, 0xc4, 0xbd, 0x0c, 0x47, 0x28, 0x3d, 0xa0, 0x05, 0x1e, 0x3d,
  0x77, 0x88, 0x89, 0xbb, 0xe0, 0x96, 0x9e, 0xbd, 0x1a, 0x6b, 0xde, 0xbd,
  0xf5, 0xcf, 0xb2, 0xbd, 0x6f, 0xfe, 0x1a, 0xbc, 0x82, 0xf9, 0x99, 0x3d,
  0xf9, 0x99, 0xb5, 0x3c, 0x23, 0xbe, 0x8e, 0x3d, 0x40, 0x44, 0x90, 0x3d,
  0x7f, 0x40, 0xd0, 0x3d, 0xb3, 0x16, 0x37, 0xbe, 0xa6, 0x69, 0xfe, 0x3c,
  0xfa, 0x41, 0xfd, 0x3d, 0x6a, 0xb5, 0xeb, 0xbd, 0xa5, 0x1b, 0x11, 0xbe,
  0xc0, 0x88, 0x2c, 0xbe, 0xd7, 0x06, 0x63, 0xbe, 0xa0, 0x22, 0xa0, 0xbc,
  0x73, 0x32, 0x1e, 0x3e, 0xa3, 0xe9, 0x60, 0xbe, 0xe8, 0x5c, 0xa3, 0x3d,
  0x7a, 0x40, 0x34, 0xbe, 0x47, 0xcb, 0x64, 0xbe, 0x54, 0xea, 0x60, 0xbe,
  0x4c, 0x4e, 0xb5, 0x3d, 0x0b, 0x96, 0x1d, 0xbe, 0x63, 0x1d, 0x22, 0xbe,
  0xed, 0x51, 0x93, 0xbc, 0x3a, 0xe6, 0x78, 0xbd, 0x9d, 0x2d, 0x4e, 0xbd,
  0x2b, 0xbb, 0x4b, 0xbe, 0xca, 0xf9, 0xae, 0x3c, 0x2f, 0xa0, 0x92, 0x3d,
  0xd5, 0x86, 0x54, 0xbe, 0x86, 0xa5, 0x21, 0xbe, 0x2f, 0x8d, 0x23, 0xbe,
  0xf2, 0xd9, 0x3a, 0xbe, 0x9d, 0x29, 0x82, 0x3d, 0xba, 0x3b, 0x6d, 0xbe,
  0x0e, 0xd1, 0x3c, 0x3d, 0x7e, 0x4d, 0x3e, 0x3c, 0x84, 0xeb, 0x1d, 0xbe,
  0x20, 0x69, 0x80, 0x3b, 0xb3, 0x96, 0x61, 0xbe, 0xd4, 0xdb, 0xd6, 0xbd,
  0x17, 0x39, 0xf8, 0xbb, 0x56, 0x3d, 0x0c, 0xbe, 0x21, 0x40, 0x11, 0xba,
  0xc3, 0xd0, 0xbe, 0xbd, 0xf5, 0x95, 0xd8, 0xbc, 0x87, 0xc9, 0x09, 0x3e,
  0x76, 0x60, 0xf2, 0x3d, 0xb6, 0xa2, 0x8e, 0xbe, 0xdf, 0x49, 0x24, 0x3e,
  0x89, 0x98, 0x7e, 0xbe, 0xb0, 0x44, 0x31, 0xbe, 0x8f, 0x18, 0x1e, 0xbd,
  0x25, 0x63, 0x2b, 0xbe, 0xc5, 0x3d, 0xc7, 0xbc, 0x1f, 0xeb, 0x34, 0xbe,
  0xe0, 0x96, 0xb2, 0xbd, 0xa9, 0x75, 0x72, 0x3d, 0x8c, 0x99, 0x4a, 0xbd,
  0x32, 0x56, 0x78, 0x3d, 0xbe, 0xf9, 0x4b, 0xbe, 0xf6, 0x09, 0x23, 0xbe,
  0xf7, 0xf1, 0x30, 0x3d, 0x3c, 0xf0, 0x46, 0xbe, 0xc0, 0xc1, 0xa0, 0x3c,
  0xd3, 0x43, 0x0a, 0x3d, 0x9d, 0x03, 0x46, 0xbe, 0x16, 0x10, 0x92, 0xbd,
  0x90, 0xbd, 0xb1, 0xbd, 0xf7, 0x1e, 0x39, 0xbe, 0xe8, 0x9f, 0xad, 0x3d,
  0x32, 0xe3, 0x39, 0xbe, 0xe4, 0x8c, 0xa8, 0xbd, 0xce, 0xd9, 0x7e, 0xbe,
  0xfc, 0x30, 0xac, 0xbc, 0x72, 0xd2, 0xa9, 0xbd, 0xbb, 0xbf, 0x69, 0x3d,
  0x25, 0xd0, 0x17, 0x3e, 0x0d, 0xbe, 0xe0, 0x3d, 0xc7, 0x6e, 0x7f, 0xbe,
  0xc1, 0xd7, 0xe5, 0xbd, 0x76, 0x81, 0xbe, 0xbd, 0x7f, 0xa6, 0x9c, 0xbe,
  0x15, 0xc2, 0xa2, 0xbd, 0x2c, 0x69, 0xe4, 0x3c, 0x8d, 0xa4, 0xa0, 0x3d,
  0x3b, 0xab, 0x31, 0x3b, 0xb3, 0xa3, 0xc6, 0x3d, 0x04, 0xd2, 0xa0, 0xbd,
  0xa8, 0x0a, 0xdb, 0xbd, 0x70, 0x42, 0x5f, 0xbc, 0x12, 0xa4, 0x44, 0xbe,
  0x40, 0x1e, 0xf5, 0x3c, 0x10, 0x82, 0x66, 0xbe, 0x44, 0xbe, 0xe3, 0xbd,
  0x05, 0x71, 0x01, 0x3a, 0xa8, 0x34, 0x10, 0x3d, 0x88, 0x50, 0x86, 0xbd,
  0x37, 0x49, 0x08, 0xbe, 0x12, 0xaf, 0xcc, 0xbd, 0xfa, 0xb9, 0xcf, 0xbc,
  0x57, 0xba, 0x5f, 0x3c, 0xbb, 0xf2, 0xc3, 0x3d, 0x41, 0x63, 0x18, 0xbe,
  0xc2, 0xee, 0x0c, 0xbe, 0x85, 0xca, 0xea, 0xbc, 0xea, 0x11, 0xe8, 0xbd,
  0xdd, 0x9d, 0xc8, 0xbd, 0xef, 0x9d, 0x68, 0xbd, 0xc0, 0x26, 0x6e, 0xbe,
  0x2b, 0x87, 0x88, 0xbe, 0x24, 0x98, 0x85, 0xbe, 0x95, 0xe9, 0x39, 0xbe,
  0xac, 0x7e, 0xf3, 0xbd, 0xb4, 0x6e, 0x4a, 0xbe, 0x90, 0xef, 0x27, 0xbd,
  0x2b, 0x9a, 0xbb, 0xbc, 0x2d, 0x7b, 0x95, 0xbe, 0x8b, 0xd8, 0xb9, 0xbc,
  0x37, 0xf3, 0x2c, 0xbe, 0x8f, 0x9a, 0x66, 0xbd, 0xb7, 0x38, 0x8b, 0xbd,
  0xc5, 0xc5, 0x03, 0xbe, 0x82, 0xe7, 0x80, 0x3e, 0x10, 0x81, 0x41, 0x3d,
  0xeb, 0x85, 0x8c, 0xbd, 0xa3, 0x5e, 0x01, 0xbe, 0x42, 0x8e, 0x47, 0xbe,
  0x61, 0x1a, 0x11, 0x3e, 0xba, 0x29, 0x7a, 0xbe, 0xb8, 0x90, 0xad, 0x3d,
  0x14, 0x3f, 0x58, 0xbe, 0x5a, 0xea, 0x9d, 0xbe, 0x05, 0x2c, 0x41, 0x3e,
  0x8a, 0xe3, 0xf1, 0xbd, 0x93, 0xdd, 0xc4, 0x3d, 0xe9, 0xa6, 0x8e, 0xbb,
  0x98, 0x49, 0xcb, 0x3d, 0x8c, 0xa8, 0x23, 0xbe, 0xd6, 0x72, 0xa2, 0x3e,
  0x01, 0xa7, 0x46, 0xbd, 0xd6, 0x56, 0x18, 0x3e, 0xf5, 0xb7, 0x59, 0xbe,
  0xb7, 0x40, 0x24, 0xbe, 0x3d, 0x0e, 0x81, 0x3e, 0x5d, 0xf1, 0xa4, 0xbe,
  0xf3, 0xf6, 0xc6, 0x3d, 0xa9, 0x50, 0xe7, 0x3d, 0x6a, 0x76, 0x20, 0xbf,
  0xc0, 0x16, 0x03, 0xbc, 0x59, 0x70, 0x47, 0xbe, 0x2f, 0x63, 0x83, 0x3d,
  0x3e, 0x93, 0x81, 0xbc, 0x30, 0xf0, 0xbf, 0x3c, 0x89, 0x8e, 0xdd, 0xbd,
  0x4c, 0xe8, 0xfe, 0x3e, 0xf0, 0x57, 0xba, 0xbd, 0xb6, 0x68, 0x1d, 0x3e,
  0x2e, 0x70, 0x43, 0x3e, 0xb2, 0x77, 0x5a, 0x3a, 0x5d, 0x8c, 0x11, 0x3e,
  0x8c, 0xa1, 0xca, 0xbc, 0x42, 0x80, 0x5e, 0xbc, 0x54, 0x57, 0xf2, 0x3b,
  0x85, 0x48, 0x00, 0xbf, 0x61, 0x54, 0x67, 0x3d, 0xcd, 0x3d, 0xd6, 0xbd,
  0x62, 0x51, 0xc7, 0x3c, 0xe9, 0x6d, 0x17, 0xbd, 0xc1, 0xaf, 0xbf, 0x3d,
  0xac, 0x48, 0x12, 0xbb, 0x84, 0xbc, 0x99, 0x3e, 0x2f, 0x9d, 0xe7, 0xbc,
  0x9f, 0xe9, 0x42, 0x3e, 0x44, 0x6f, 0x1a, 0x3e, 0xbd, 0x53, 0x03, 0xbb,
  0x0a, 0xae, 0xb9, 0x3d, 0x1e, 0x0c, 0x3b, 0x3c, 0xde, 0x78, 0x16, 0x3d,
  0x0e, 0x33, 0x97, 0xbd, 0x3c, 0x2c, 0x1e, 0x3e, 0xcb, 0x7f, 0xdc, 0x3d,
  0x28, 0x87, 0xfd, 0xbb, 0x3f, 0xf6, 0x23, 0x3e, 0x25, 0xa6, 0x89, 0x3c,
  0xa6, 0xa9, 0x45, 0x3e, 0xe2, 0x73, 0xa2, 0xbd, 0x44, 0x69, 0xcf, 0x3e,
  0x3c, 0x15, 0x67, 0xbe, 0xd4, 0xc2, 0xd9, 0xbd, 0x86, 0xc3, 0x91, 0x3c,
  0x1d, 0xcb, 0x14, 0xbd, 0xa7, 0x86, 0x0d, 0x3e, 0xd4, 0xcb, 0xd3, 0xbc,
  0xa7, 0x8e, 0x3e, 0x3d, 0x0e, 0xcc, 0x10, 0x3e, 0xe3, 0xcb, 0x2f, 0xbe,
  0x1c, 0x97, 0x2a, 0x3c, 0xd8, 0x03, 0x38, 0xbd, 0x40, 0xef, 0x90, 0x3d,
  0xfb, 0x24, 0xc6, 0xbd, 0xe4, 0xef, 0x3c, 0xbe, 0x39, 0x7b, 0x8e, 0xbe,
  0xb2, 0xd5, 0xf4, 0x3e, 0xc7, 0xc2, 0x99, 0xbe, 0x95, 0x3f, 0x40, 0xbe,
  0xcf, 0x79, 0x8b, 0xbd, 0x20, 0x82, 0xc1, 0xbd, 0xb2, 0xba, 0x26, 0x3e,
  0xf3, 0xda, 0x08, 0xbe, 0x2b, 0x90, 0x3c, 0x3b, 0xaf, 0x93, 0xbb, 0xbd,
  0xf2, 0xdc, 0xae, 0xbe, 0x8f, 0x54, 0x0c, 0x3c, 0xdc, 0x53, 0xee, 0xbd,
  0x38, 0x85, 0x39, 0xbd, 0x59, 0xc1, 0x5f, 0x3d, 0x8a, 0x4d, 0x08, 0xbe,
  0x12, 0x69, 0x41, 0x3c, 0x04, 0xe3, 0x2e, 0x3d, 0x73, 0x3f, 0x6e, 0xbe,
  0xe0, 0x71, 0x34, 0xbe, 0x1a, 0xba, 0x8a, 0xbe, 0x0a, 0x0c, 0x83, 0xbd,
  0x06, 0x25, 0x01, 0x3d, 0xff, 0x20, 0x54, 0xbc, 0xd1, 0x78, 0x20, 0x3d,
  0x6f, 0xfe, 0xd3, 0xbd, 0x8e, 0xb5, 0x0e, 0xbe, 0x0c, 0xe3, 0x32, 0xbd,
  0x84, 0x8a, 0x14, 0xbe, 0xeb, 0x92, 0x3d, 0xbe, 0x34, 0xb6, 0xb6, 0xbd,
  0x94, 0xe6, 0x21, 0xbe, 0x68, 0xb9, 0xe6, 0xbc, 0x29, 0x1b, 0xd0, 0xbd,
  0x47, 0x1c, 0x07, 0xbe, 0x54, 0xc6, 0xb4, 0xbd, 0x35, 0x4c, 0x7e, 0xbd,
  0x88, 0x64, 0xbe, 0xbe, 0xd4, 0xa2, 0x67, 0xbe, 0x6b, 0xab, 0x14, 0xbe,
  0xcf, 0x51, 0x5f, 0xbe, 0xd7, 0xb3, 0x27, 0xbe, 0xc3, 0x2b, 0xd6, 0x3c,
  0xcc, 0xdf, 0x22, 0xbe, 0x7b, 0x06, 0xa8, 0x3d, 0x80, 0x4f, 0xbc, 0x3d,
  0x68, 0x2c, 0xf4, 0xbd, 0x4c, 0xf4, 0xe8, 0x3c, 0x11, 0x78, 0x81, 0xbd,
  0xa3, 0x38, 0x61, 0xbe, 0xe1, 0x6a, 0x54, 0xbe, 0xec, 0x06, 0x35, 0x3e,
  0x24, 0x86, 0x76, 0x3d, 0x0a, 0x2c, 0xec, 0xbd, 0x17, 0x8f, 0xe8, 0xbd,
  0x52, 0x65, 0xd0, 0xbd, 0x84, 0x7a, 0xd9, 0xbd, 0x2d, 0x50, 0x64, 0x3c,
  0x5a, 0x75, 0xc0, 0x3d, 0x7f, 0x40, 0x69, 0x3d, 0x46, 0xc1, 0x9c, 0x3c,
  0xcf, 0x95, 0xa1, 0x3d, 0x06, 0xd9, 0xfb, 0xbd, 0x91, 0xa2, 0xbd, 0xba,
  0x47, 0x6e, 0x25, 0x3d, 0x74, 0x64, 0x88, 0x3d, 0x60, 0x77, 0xf4, 0x3d,
  0xc7, 0xe0, 0x64, 0xbe, 0x35, 0xf0, 0xb7, 0x3d, 0x40, 0x26, 0xad, 0xbd,
  0x97, 0xb3, 0x39, 0xbe, 0xb8, 0xe3, 0x60, 0xbe, 0xf3, 0xf9, 0x70, 0xbd,
  0xa0, 0x1e, 0x2e, 0x3d, 0xb1, 0x0b, 0x1d, 0xbe, 0xc2, 0xfc, 0x2f, 0xbe,
  0xdc, 0x36, 0x3f, 0xbe, 0x9c, 0x8a, 0x12, 0xbd, 0x1e, 0x05, 0x9d, 0x3c,
  0xd5, 0x6e, 0x09, 0x3d, 0xad, 0xc9, 0xd6, 0xbd, 0x95, 0xb9, 0x65, 0xbd,
  0xbf, 0x0a, 0x22, 0xbd, 0xa0, 0x7c, 0x2c, 0xbe, 0x47, 0x00, 0x59, 0xbd,
  0x81, 0xb5, 0x67, 0xbe, 0x4d, 0xcb, 0x9b, 0x3d, 0x56, 0x9b, 0x27, 0xbe,
  0x02, 0x4d, 0xc8, 0xbe, 0x00, 0x39, 0xba, 0x3d, 0x12, 0x53, 0x15, 0x3d,
  0x82, 0x72, 0x34, 0xbc, 0x85, 0xfd, 0x36, 0xbe, 0x61, 0xd4, 0xe3, 0x3c,
  0x84, 0x3f, 0x84, 0xbd, 0xf1, 0x84, 0x5f, 0xbe, 0x22, 0x76, 0x37, 0xbe,
  0xcd, 0x5a, 0x76, 0x3d, 0xca, 0x32, 0x83, 0x3b, 0x5f, 0x21, 0x34, 0x3e,
  0x50, 0x3a, 0xba, 0xbd, 0xce, 0x36, 0x98, 0xbe, 0x21, 0xb5, 0xa9, 0xbc,
  0x32, 0xca, 0x54, 0xbe, 0x50, 0xeb, 0xa6, 0xbe, 0xda, 0x74, 0x3c, 0xbd,
  0xc9, 0x19, 0x18, 0x3d, 0x99, 0xbd, 0xcb, 0xb8, 0xe9, 0x56, 0x52, 0xbe,
  0xab, 0xdb, 0x1d, 0x3d, 0xdc, 0xc1, 0xea, 0xbd, 0xc8, 0xba, 0xfd, 0x3d,
  0xcd, 0xf4, 0x26, 0xbe, 0x15, 0x57, 0x8b, 0x3c, 0x8f, 0x2c, 0xbb, 0x3c,
  0x1c, 0x2b, 0xe5, 0xbd, 0x7e, 0xcb, 0x47, 0x3d, 0x67, 0x9b, 0x34, 0xbe,
  0x79, 0x4b, 0x5e, 0xbe, 0x55, 0xd0, 0x77, 0xbe, 0xb7, 0x4e, 0x9c, 0xbe,
  0xf1, 0x81, 0x30, 0xbd, 0x2b, 0x5a, 0xb2, 0x3d, 0x92, 0x1e, 0x93, 0xbd,
  0xde, 0xc6, 0xa2, 0x3c, 0xf5, 0xa3, 0xae, 0x3c, 0xf5, 0x3c, 0x85, 0xbe,
  0x3f, 0xbc, 0x0a, 0xbe, 0x17, 0x2e, 0xa4, 0xbe, 0x65, 0x80, 0x78, 0xbe,
  0x62, 0x3d, 0x36, 0xbe, 0x9a, 0xef, 0x94, 0xbe, 0x02, 0x09, 0xae, 0x3d,
  0x08, 0x83, 0x85, 0xbe, 0x2c, 0x2a, 0xc4, 0xbd, 0x71, 0xb2, 0xfd, 0xbc,
  0xa1, 0x27, 0x5f, 0xbe, 0x10, 0x57, 0x35, 0xbd, 0xc1, 0x63, 0x39, 0xbe,
  0x80, 0x4f, 0x2f, 0xbe, 0xaa, 0xb6, 0x8a, 0xbc, 0xb5, 0xcc, 0x35, 0xbf,
  0x15, 0x28, 0x06, 0x3e, 0xc2, 0x8a, 0xb7, 0xbd, 0x9c, 0x8f, 0xbe, 0xbe,
  0xa3, 0x57, 0x11, 0xbe, 0x5e, 0xa8, 0x97, 0xbe, 0x34, 0x37, 0xce, 0x3d,
  0x24, 0x2b, 0x82, 0x3e, 0xa0, 0xb4, 0xb3, 0x3e, 0x4c, 0x7e, 0xf6, 0xbe,
  0x18, 0x5f, 0x7f, 0x3e, 0x02, 0x4a, 0x1f, 0xbe, 0xf8, 0x79, 0xa3, 0x3d,
  0x37, 0x1c, 0xa2, 0xbe, 0x13, 0x47, 0x0d, 0x3d, 0xb5, 0x64, 0x26, 0x3a,
  0x66, 0x4b, 0x93, 0x3d, 0x88, 0x0a, 0x40, 0x3d, 0x74, 0x81, 0x33, 0xbe,
  0xd6, 0x25, 0x24, 0x3e, 0x2c, 0x3a, 0x88, 0xbe, 0x54, 0xc5, 0x0d, 0xbe,
  0x2a, 0xb0, 0x3e, 0xbe, 0xd7, 0x08, 0x05, 0x3d, 0x1e, 0x1f, 0xde, 0x3e,
  0x9d, 0xe0, 0xe5, 0xbe, 0x3f, 0x9d, 0xad, 0x3e, 0xb2, 0xca, 0x6e, 0x3c,
  0x1b, 0x35, 0x12, 0xbe, 0xfe, 0x0f, 0xbf, 0xbe, 0x97, 0x9f, 0x99, 0x3e,
  0x20, 0x76, 0x13, 0xbd, 0xf6, 0xa5, 0x48, 0x3e, 0xe2, 0x3c, 0x30, 0xbd,
  0xb9, 0x85, 0x4c, 0xbd, 0xda, 0xf3, 0xf9, 0x3d, 0x49, 0x87, 0xa1, 0xbd,
  0xaf, 0x34, 0x7a, 0x3d, 0x48, 0x10, 0xa4, 0xbe, 0xd4, 0x65, 0xa9, 0xbe,
  0x83, 0x9d, 0xac, 0x3d, 0x53, 0xf2, 0xae, 0xbe, 0x97, 0x50, 0x9b, 0x3e,
  0x3a, 0xbf, 0x2c, 0x3d, 0xf3, 0xc2, 0x9e, 0xbd, 0xce, 0x9f, 0x66, 0xbe,
  0x6a, 0x59, 0xef, 0x3d, 0x11, 0x7f, 0x8c, 0x3d, 0xc7, 0x34, 0xb3, 0x3d,
  0xba, 0x3a, 0x8e, 0xbb, 0x55, 0x9e, 0x08, 0x3e, 0x01, 0x5d, 0x2b, 0xbe,
  0x73, 0xa5, 0xb8, 0xbc, 0xa7, 0xee, 0x70, 0xbe, 0x30, 0x02, 0x48, 0xbe,
  0xbf, 0x6d, 0xba, 0x3d, 0x59, 0x37, 0x1a, 0x3e, 0x14, 0x7d, 0xb4, 0xbe,
  0x42, 0x5c, 0xfe, 0x3d, 0x3e, 0xf3, 0x6b, 0xbe, 0x0f, 0x87, 0x07, 0xbd,
  0x50, 0x4d, 0x0f, 0x3e, 0x2a, 0xb1, 0x7c, 0xbe, 0x2f, 0xf1, 0x48, 0x3d,
  0xaa, 0xe5, 0x76, 0x3e, 0xae, 0x94, 0x33, 0xbc, 0x53, 0x29, 0x8e, 0xbd,
  0x90, 0xfd, 0x4a, 0xbe, 0x36, 0x9d, 0x8f, 0xbe, 0x2a, 0xd6, 0x3e, 0xbe,
  0xf2, 0x38, 0x99, 0xbe, 0xd6, 0x11, 0x92, 0x3b, 0x65, 0x89, 0x8e, 0x3e,
  0xe5, 0xb0, 0xc5, 0xbe, 0x74, 0x34, 0xcc, 0x3e, 0xd1, 0x07, 0xfb, 0xbd,
  0x9f, 0x26, 0x05, 0xbd, 0x30, 0xf9, 0x97, 0xbe, 0x6d, 0xb4, 0xed, 0x3d,
  0x41, 0x47, 0xac, 0xbd, 0xbb, 0x5c, 0x2d, 0xbc, 0x35, 0x15, 0xfa, 0x3d,
  0x53, 0xdc, 0xaa, 0x3d, 0x88, 0xea, 0x30, 0x3e, 0x61, 0x5b, 0x20, 0xbd,
  0xdd, 0xd5, 0xdc, 0xbd, 0xc2, 0x6d, 0xe5, 0xbc, 0x14, 0xc6, 0xc3, 0xbd,
  0x8c, 0x7a, 0x8c, 0x3e, 0x96, 0x05, 0x6b, 0xbe, 0xf9, 0x3e, 0x95, 0x3e,
  0x5d, 0x43, 0x72, 0x3e, 0x13, 0xa7, 0x19, 0x3e, 0x44, 0xd5, 0x83, 0xbe,
  0x73, 0x39, 0xf9, 0x3d, 0xc7, 0x36, 0x2d, 0xbe, 0x78, 0x9a, 0xb0, 0xbd,
  0xb1, 0xe1, 0x50, 0xbd, 0x3e, 0x25, 0x8c, 0xbd, 0xf6, 0xc6, 0xc9, 0x3b,
  0x0e, 0xac, 0x22, 0xbe, 0x37, 0x4d, 0x08, 0x3d, 0xe4, 0xce, 0x77, 0x3d,
  0x92, 0xc6, 0x0e, 0x3e, 0x65, 0xd8, 0xec, 0x3d, 0x16, 0xa1, 0xb2, 0xbd,
  0x69, 0xb5, 0xed, 0x3d, 0xbd, 0x82, 0xff, 0xbd, 0x3a, 0xd6, 0xf6, 0xbd,
  0x6c, 0x7a, 0xb2, 0xbe, 0xa9, 0xda, 0x13, 0xbe, 0x43, 0x02, 0xbf, 0xbe,
  0x10, 0xdb, 0xdf, 0xbd, 0xbc, 0x1b, 0x4a, 0xbc, 0x28, 0xcc, 0x18, 0x3d,
  0xb8, 0x64, 0x08, 0xbd, 0x05, 0x64, 0xdf, 0x3e, 0x1d, 0x84, 0x25, 0xbe,
  0xc6, 0x9b, 0x6f, 0xbe, 0xc0, 0x41, 0x89, 0x3a, 0xbd, 0x34, 0x15, 0xbe,
  0x46, 0xac, 0x61, 0xbe, 0x5a, 0xdc, 0x0f, 0xbe, 0x49, 0xb5, 0x9b, 0xbe,
  0x4e, 0xee, 0x8a, 0xbe, 0x42, 0xc1, 0xd6, 0x3e, 0xa5, 0x8c, 0x6a, 0xbe,
  0x24, 0x3a, 0xbe, 0x3d, 0x80, 0xef, 0x15, 0xbe, 0x61, 0x04, 0xc5, 0x3b,
  0x5e, 0x8b, 0xb6, 0x3b, 0xf9, 0x64, 0x93, 0xbe, 0x19, 0x24, 0x79, 0x3c,
  0xcf, 0x92, 0x95, 0x3e, 0xc9, 0x93, 0x27, 0xbe, 0x26, 0xd2, 0x09, 0x3e,
  0x27, 0x95, 0x90, 0xbe, 0x73, 0x98, 0x98, 0xbe, 0xac, 0xcb, 0xc4, 0xbd,
  0xbb, 0x95, 0xc4, 0xbe, 0x5b, 0xe5, 0x40, 0xbe, 0x3e, 0x53, 0x53, 0x3f,
  0x4e, 0xc2, 0x4d, 0x3e, 0x4c, 0x40, 0x6f, 0xbe, 0x7a, 0xb4, 0x91, 0x3d,
  0x49, 0xdf, 0xf6, 0x3b, 0xd9, 0xc0, 0x16, 0x3e, 0x69, 0x94, 0x04, 0x3e,
  0xad, 0x65, 0x82, 0x3e, 0xe5, 0xa6, 0xfd, 0x3e, 0x2d, 0x6b, 0x85, 0xbc,
  0xa3, 0xd4, 0x3f, 0xbe, 0x56, 0x91, 0x4c, 0xbe, 0x5f, 0x57, 0x1c, 0xbe,
  0xa8, 0x3c, 0xdd, 0xbd, 0xf0, 0x87, 0x96, 0xbe, 0x49, 0xd1, 0x1b, 0x3d,
  0x71, 0x28, 0x7d, 0x3f, 0xce, 0xe3, 0xd2, 0x3d, 0x18, 0x42, 0x9c, 0xbd,
  0xf0, 0xaa, 0x7e, 0xbd, 0x68, 0x3d, 0xf3, 0x3b, 0xdc, 0xd3, 0x41, 0x3c,
  0xef, 0xb4, 0x8c, 0x3d, 0xb8, 0xb8, 0x0a, 0x3e, 0x0c, 0x1a, 0xb4, 0x3e,
  0xc1, 0x46, 0x9b, 0x3d, 0x9e, 0x7b, 0xd1, 0x3d, 0x8d, 0x68, 0x23, 0xbe,
  0x73, 0x0c, 0x90, 0xbd, 0xf4, 0xfe, 0x2e, 0xbd, 0xcb, 0xab, 0x81, 0xbe,
  0x89, 0x12, 0x4a, 0xbe, 0x14, 0x46, 0x96, 0x3f, 0x9a, 0x38, 0x3c, 0xbe,
  0x1d, 0x10, 0x8c, 0xbe, 0xfa, 0x49, 0x79, 0x3e, 0xf9, 0x2a, 0x83, 0xbe,
  0x73, 0x63, 0x45, 0xbd, 0x9e, 0x3c, 0x87, 0xbd, 0x2b, 0x71, 0x88, 0x3d,
  0x2b, 0x70, 0x80, 0x3d, 0x20, 0x4f, 0x37, 0xbe, 0x0b, 0x73, 0xf7, 0xbd,
  0x39, 0xc4, 0x1d, 0xbe, 0x53, 0x00, 0x8b, 0xbd, 0x2b, 0x15, 0x7a, 0xbc,
  0xe1, 0xea, 0x9f, 0xbe, 0x2c, 0x64, 0x4e, 0xbe, 0x84, 0x36, 0x6c, 0x3f,
  0x83, 0x21, 0x9d, 0x3d, 0xfb, 0x57, 0xcc, 0x3d, 0x37, 0xff, 0x20, 0x3d,
  0x67, 0xa4, 0x24, 0xbe, 0x97, 0x6f, 0x4f, 0xbe, 0x27, 0x2b, 0x01, 0xbe,
  0x63, 0x78, 0x27, 0x3e, 0x9a, 0xc4, 0x00, 0x3e, 0x98, 0x81, 0x81, 0xbe,
  0x4d, 0x11, 0x8c, 0x3d, 0xe2, 0x4e, 0x22, 0xbc, 0x99, 0x39, 0x84, 0xbe,
  0x8a, 0x5d, 0x59, 0xbd, 0x48, 0x4b, 0x7e, 0xbe, 0x7c, 0x5e, 0x1f, 0xbd,
  0x8e, 0xde, 0x65, 0x3f, 0xf0, 0xd6, 0x59, 0x3d, 0x5f, 0xed, 0xa4, 0xbd,
  0x03, 0x28, 0xd2, 0xbd, 0xc2, 0x39, 0xfe, 0x39, 0xf5, 0x50, 0xdb, 0xbd,
  0x57, 0x8e, 0x64, 0xbd, 0xa6, 0xb2, 0x9e, 0xbe, 0x2c, 0x48, 0xcf, 0x3d,
  0x87, 0x54, 0x67, 0x3d, 0x20, 0xc9, 0x83, 0xbe, 0x8f, 0xc7, 0xc5, 0xbd,
  0x91, 0xa2, 0x65, 0xbe, 0x53, 0xbb, 0x5c, 0xbe, 0x52, 0x03, 0x4c, 0xbe,
  0x63, 0x5a, 0x00, 0x3d, 0x9b, 0xea, 0xa4, 0x3e, 0x82, 0x33, 0x5e, 0x3d,
  0x06, 0x01, 0xdb, 0xbe, 0x52, 0x8d, 0x10, 0x3e, 0xdb, 0x5b, 0x19, 0xbe,
  0x5f, 0xbb, 0x8a, 0xbc, 0xf6, 0xdd, 0xd8, 0xbd, 0xf7, 0x99, 0x5f, 0x3e,
  0x7d, 0xc0, 0x07, 0xbb, 0x5b, 0xd5, 0xaf, 0xbb, 0x46, 0x57, 0xaa, 0xbe,
  0x4c, 0xa3, 0x1c, 0xbe, 0x51, 0xce, 0x0d, 0xbe, 0x6f, 0x01, 0x7e, 0x3c,
  0xfe, 0x20, 0xdb, 0xbd, 0xf9, 0xd6, 0xa6, 0xbe, 0x03, 0x10, 0x1a, 0x3f,
  0xd5, 0x33, 0x81, 0xbd, 0x16, 0xe6, 0x94, 0xbe, 0xec, 0x3c, 0x28, 0xbd,
  0xe9, 0x23, 0xb7, 0xbe, 0xfd, 0xdf, 0x68, 0xbe, 0x48, 0x83, 0x9f, 0xbe,
  0x3c, 0x68, 0xfd, 0xbb, 0x36, 0x29, 0xbd, 0x3e, 0x1e, 0xda, 0x82, 0x3e,
  0x4d, 0x66, 0x75, 0xbd, 0x35, 0x70, 0x8c, 0xbe, 0x3e, 0x9d, 0x57, 0xbe,
  0xb3, 0x68, 0x2f, 0x3e, 0xb9, 0x07, 0xec, 0xbc, 0x9c, 0xc5, 0xd8, 0xbd,
  0x62, 0x8b, 0xed, 0x3e, 0x19, 0xb1, 0x94, 0x3e, 0x26, 0x66, 0x5b, 0xbe,
  0x0b, 0xce, 0x2e, 0xbd, 0xc0, 0x72, 0x1c, 0xbe, 0xeb, 0x4f, 0xef, 0xbc,
  0x1a, 0x8e, 0xbc, 0xbb, 0x75, 0xbf, 0x89, 0x3e, 0xbb, 0x94, 0xfd, 0x3e,
  0xd8, 0x2c, 0x13, 0x3e, 0xd2, 0xc7, 0x9e, 0x3e, 0x20, 0x73, 0x03, 0x3e,
  0xf1, 0x71, 0x1e, 0xbe, 0xc2, 0x14, 0x79, 0x3d, 0x10, 0x3e, 0x42, 0x3d,
  0x0b, 0x54, 0x58, 0x3b, 0xf9, 0x62, 0x18, 0x3f, 0xdb, 0xc3, 0x78, 0xbd,
  0x17, 0xa3, 0xfc, 0xbd, 0x93, 0x26, 0x64, 0x3c, 0x35, 0x54, 0x71, 0xbd,
  0x6f, 0xb1, 0xaa, 0x3e, 0xe8, 0xa9, 0x4a, 0xbc, 0xf0, 0x0f, 0xc4, 0x3e,
  0x0b, 0x95, 0x1f, 0x3e, 0x6c, 0x51, 0x2a, 0x3d, 0xf6, 0x9b, 0xe2, 0x3d,
  0x48, 0xce, 0xbe, 0x3c, 0x03, 0xfd, 0xa6, 0xbe, 0x4d, 0x81, 0x50, 0x3d,
  0xc6, 0xaf, 0xd9, 0x3d, 0x4c, 0x9b, 0x87, 0x3d, 0xfe, 0x80, 0x51, 0x3f,
  0x0b, 0xcc, 0x1c, 0xbd, 0x80, 0xb9, 0x2c, 0xbc, 0x98, 0x31, 0xe0, 0xbd,
  0x8b, 0x0d, 0x9a, 0xbc, 0xa6, 0x3c, 0x0c, 0x3e, 0x68, 0xba, 0xbe, 0x3d,
  0x86, 0xda, 0x8a, 0x3d, 0x53, 0x59, 0x3d, 0x3d, 0x4a, 0x06, 0x4b, 0xbe,
  0xfc, 0xd2, 0x8e, 0xbd, 0x1f, 0x35, 0xf7, 0xbd, 0x02, 0x16, 0x43, 0xbe,
  0xbf, 0x23, 0x9d, 0x3e, 0x93, 0x52, 0x4c, 0xbd, 0xec, 0x6e, 0x11, 0x3c,
  0x89, 0x1e, 0xf8, 0x3e, 0xe2, 0x8a, 0xdb, 0xbd, 0xef, 0x45, 0xfd, 0xbd,
  0x61, 0xa0, 0x96, 0x3d, 0xd9, 0x38, 0x27, 0x3d, 0x49, 0xd6, 0xb8, 0xbd,
  0xe0, 0xcc, 0x0e, 0xbe, 0x66, 0xa2, 0x02, 0x3e, 0x55, 0xe4, 0x1b, 0x3e,
  0x8b, 0xb5, 0x37, 0xbe, 0x6a, 0xbd, 0x41, 0xbe, 0xb2, 0xcb, 0x54, 0xbe,
  0xe9, 0x9d, 0x96, 0xbd, 0xb9, 0xa8, 0xda, 0x3d, 0xa8, 0x87, 0xff, 0xbd,
  0x00, 0x5d, 0xe3, 0xbd, 0x6d, 0x7d, 0x26, 0x3f, 0xd4, 0x30, 0xf8, 0xbd,
  0x6b, 0x0c, 0xc9, 0x3d, 0xfd, 0xee, 0x07, 0x3e, 0x69, 0xe5, 0x38, 0xbe,
  0x38, 0xd0, 0x41, 0xbe, 0xe2, 0x22, 0xf2, 0xbd, 0x2b, 0x65, 0x22, 0xbe,
  0x86, 0x85, 0xfa, 0x3d, 0xb8, 0x52, 0x47, 0xbe, 0x46, 0xc9, 0x8e, 0xbd,
  0x96, 0x86, 0x41, 0xbe, 0xfb, 0x43, 0x42, 0xbe, 0x38, 0x88, 0x01, 0xbd,
  0xb6, 0xf7, 0xdd, 0x3c, 0xa1, 0x4d, 0x22, 0xbc, 0xf4, 0x95, 0x88, 0x3e,
  0x8e, 0x12, 0x86, 0x3e, 0x69, 0x97, 0xf8, 0xbd, 0xca, 0xea, 0x27, 0xbe,
  0x5a, 0xd4, 0xe4, 0x3d, 0xb6, 0x60, 0x30, 0x3e, 0xbb, 0x9d, 0xc6, 0xbd,
  0xba, 0x76, 0x42, 0xbe, 0x4e, 0x17, 0x03, 0x3e, 0x11, 0x66, 0x5f, 0x3e,
  0x49, 0xac, 0x42, 0x3e, 0x8d, 0x47, 0xa6, 0x3c, 0x9c, 0xed, 0xd1, 0x3d,
  0x64, 0xb0, 0x21, 0x3a, 0xd7, 0x86, 0xbc, 0xbd, 0xca, 0x5e, 0x01, 0xbe,
  0x75, 0x1b, 0x8d, 0xbd, 0x70, 0xf9, 0xb2, 0xbd, 0xab, 0x0e, 0x07, 0x3e,
  0x1e, 0xde, 0x0c, 0xbd, 0x15, 0x97, 0x61, 0xbc, 0x21, 0x46, 0xd3, 0x3e,
  0x40, 0x4b, 0xed, 0xbd, 0xd8, 0xd2, 0x60, 0xbe, 0x4f, 0x36, 0xdd, 0xbe,
  0x6b, 0x6d, 0x14, 0xbe, 0x42, 0x2f, 0x98, 0x3c, 0xe4, 0x1f, 0x52, 0xbd,
  0xc3, 0x26, 0x05, 0xbc, 0xea, 0xb0, 0x85, 0x3d, 0x7d, 0x59, 0x13, 0xbe,
  0x25, 0x51, 0x80, 0xbe, 0xe2, 0x99, 0x43, 0x3d, 0x49, 0xcd, 0x07, 0xbe,
  0x80, 0x9d, 0xed, 0xbc, 0x88, 0x5e, 0x9b, 0xbe, 0x91, 0x08, 0x28, 0xbe,
  0xba, 0xc6, 0x52, 0xbd, 0x9a, 0x96, 0x90, 0xbd, 0xd8, 0xc7, 0xfc, 0xbd,
  0x2a, 0xb2, 0x1f, 0xbf, 0x85, 0x95, 0xb3, 0xbd, 0xdc, 0xd0, 0x84, 0xbd,
  0x90, 0xa9, 0xff, 0xbd, 0x09, 0xbc, 0x88, 0xbe, 0x26, 0x39, 0xdb, 0xbe,
  0xcb, 0xee, 0x14, 0xbe, 0xa1, 0x01, 0xac, 0xbe, 0xf2, 0xd3, 0xa1, 0x3c,
  0x7a, 0x9b, 0xda, 0xbe, 0x89, 0x89, 0xb9, 0xbd, 0x82, 0x73, 0x79, 0xbe,
  0xe9, 0x5d, 0x41, 0xbe, 0x32, 0xc0, 0x46, 0xbe, 0xa0, 0xad, 0x2d, 0xbe,
  0x89, 0x0d, 0x9a, 0xbe, 0xb3, 0xd8, 0xba, 0xbe, 0x4a, 0x08, 0x05, 0xbe,
  0x7d, 0xf7, 0x8d, 0x3d, 0x83, 0x7b, 0xad, 0xbe, 0x39, 0x36, 0xa1, 0xbe,
  0xef, 0x8c, 0x0c, 0xbf, 0xee, 0xc4, 0x03, 0xbe, 0xe2, 0xbe, 0x50, 0xbe,
  0xfb, 0x49, 0xea, 0xbd, 0x90, 0xcf, 0x21, 0xbe, 0x99, 0xb7, 0xad, 0xbe,
  0x91, 0xea, 0x50, 0xbe, 0xda, 0x71, 0x4d, 0xbe, 0x8c, 0x78, 0x7a, 0xbe,
  0xaa, 0x79, 0xab, 0xbe, 0x07, 0xc9, 0x5b, 0xbe, 0x37, 0xad, 0x2c, 0x3d,
  0xe9, 0xa5, 0x81, 0xbe, 0x5b, 0x55, 0x2e, 0x3d, 0x3c, 0x49, 0xa3, 0x3c,
  0xed, 0x9c, 0xea, 0xbd, 0x7e, 0xe9, 0x5b, 0xbe, 0x0f, 0x8e, 0xa2, 0x3b,
  0x41, 0x6f, 0x43, 0xbe, 0xe7, 0xe1, 0xb8, 0xbd, 0xf1, 0x0e, 0xfc, 0xbd,
  0x06, 0x1d, 0xc9, 0xbd, 0x7e, 0x14, 0xca, 0xbe, 0xd3, 0x80, 0xc1, 0x3c,
  0xc9, 0xef, 0x90, 0xbd, 0x99, 0x5e, 0x6e, 0xbe, 0x9c, 0x65, 0xc1, 0xbe,
  0x2c, 0x4f, 0xa7, 0x3d, 0x9c, 0xa2, 0x7e, 0x3e, 0xda, 0xdf, 0x98, 0x3e,
  0x73, 0x23, 0xf1, 0x3c, 0x16, 0xbf, 0x9e, 0x3d, 0xd3, 0x1a, 0xdb, 0xbd,
  0x4a, 0x6e, 0x46, 0x3d, 0xee, 0x13, 0xb2, 0x3d, 0x46, 0xe1, 0x88, 0xbe,
  0x55, 0x17, 0x70, 0xbb, 0x7d, 0x11, 0x15, 0xbd, 0x09, 0x55, 0xd2, 0xbe,
  0xd8, 0xc0, 0xd2, 0xbd, 0x53, 0x67, 0x9c, 0x3e, 0x0e, 0xf0, 0xe2, 0xbd,
  0x4c, 0xf6, 0xa5, 0xbd, 0x35, 0x36, 0x6b, 0x3d, 0x59, 0x7d, 0x31, 0x3e,
  0xb8, 0x60, 0xee, 0x3d, 0x04, 0x65, 0xb7, 0xbc, 0x58, 0x65, 0xe1, 0x3c,
  0xed, 0x5d, 0x5f, 0xbd, 0x4b, 0x47, 0x20, 0x3e, 0xec, 0x28, 0xe1, 0xbc,
  0x65, 0x10, 0x6a, 0xbd, 0x30, 0x24, 0x8c, 0x3e, 0x30, 0xc0, 0x28, 0x3d,
  0x3f, 0x94, 0xa0, 0xbd, 0xaf, 0x81, 0xdf, 0xbd, 0x2e, 0xfb, 0x7e, 0x3e,
  0x16, 0x3e, 0xb7, 0x3d, 0x0c, 0x67, 0x8e, 0x3d, 0x85, 0x4a, 0x9f, 0x3c,
  0xeb, 0x19, 0x2c, 0x3e, 0xe2, 0xe6, 0x1a, 0x3e, 0xdd, 0x15, 0x2b, 0xbe,
  0x8f, 0x4b, 0xb8, 0x3d, 0x62, 0xb3, 0x2b, 0xbe, 0x78, 0x5d, 0xcb, 0x3d,
  0x3d, 0x58, 0xa2, 0x3b, 0xf7, 0x13, 0xcb, 0xbe, 0x2b, 0x4a, 0x97, 0xbd,
  0xf7, 0x73, 0x9a, 0x3c, 0x2c, 0xea, 0x4a, 0x3e, 0xc8, 0x20, 0xc2, 0xbd,
  0xbc, 0x62, 0x09, 0x3f, 0xf5, 0x3b, 0x0c, 0xbe, 0x0a, 0xc3, 0x3e, 0x3e,
  0x47, 0x53, 0xb6, 0xbd, 0x63, 0x0d, 0x34, 0xbd, 0xe4, 0xcc, 0x25, 0x3e,
  0x0a, 0xda, 0x7a, 0xbe, 0xaa, 0x8f, 0xcf, 0x3c, 0xc5, 0x98, 0x4d, 0xbe,
  0x15, 0xc8, 0xc5, 0xbc, 0x95, 0x77, 0xe7, 0x3c, 0x04, 0x02, 0x62, 0xbe,
  0xeb, 0x5c, 0x34, 0xbe, 0x55, 0x54, 0xcc, 0xbc, 0xc1, 0x29, 0xa7, 0x3d,
  0x93, 0xbc, 0x0a, 0x3d, 0x30, 0x36, 0xa4, 0x3d, 0xbf, 0x8b, 0xc2, 0xbd,
  0x15, 0xde, 0x68, 0x3e, 0xe1, 0xfe, 0xae, 0xbe, 0x5f, 0x36, 0xdf, 0xbd,
  0x2e, 0x24, 0xde, 0xbd, 0xaa, 0x94, 0x28, 0xbd, 0x48, 0x8d, 0x25, 0x3c,
  0xaf, 0xb1, 0x2d, 0xbe, 0x9b, 0x99, 0xc6, 0xbc, 0x09, 0xfe, 0x1e, 0x3d,
  0x2f, 0x9d, 0x9b, 0xbe, 0xf6, 0x74, 0x08, 0xbe, 0x2d, 0x4c, 0x3d, 0xbd,
  0xe7, 0xc3, 0x90, 0xbd, 0x58, 0x26, 0xe5, 0x3c, 0x2e, 0xa8, 0x42, 0xbd,
  0x8b, 0xb4, 0x10, 0xbc, 0x6c, 0x5e, 0xe7, 0x3d, 0x13, 0x19, 0x0d, 0xbe,
  0xf0, 0xdc, 0x11, 0x3e, 0x59, 0x67, 0xea, 0x3d, 0xd3, 0x74, 0x11, 0xbe,
  0x17, 0x86, 0x57, 0xbc, 0x2b, 0xdb, 0x3a, 0xbe, 0xed, 0x2a, 0xd6, 0x3d,
  0xfc, 0x3e, 0x46, 0x3d, 0x49, 0x4e, 0xa5, 0x3d, 0x62, 0x1d, 0xae, 0xbc,
  0xd4, 0x4f, 0xd9, 0xbb, 0x32, 0x78, 0xaa, 0x3d, 0x85, 0x2c, 0xf2, 0xbd,
  0xc3, 0xda, 0x86, 0x3c, 0xa3, 0x84, 0xbd, 0x3c, 0x32, 0x27, 0x84, 0x3d,
  0x75, 0x6f, 0x21, 0xbd, 0x3c, 0x78, 0x01, 0x3f, 0x4a, 0x1e, 0xe0, 0x3e,
  0x0c, 0x32, 0x59, 0xbe, 0x26, 0x61, 0x47, 0x3d, 0xff, 0x81, 0x20, 0xbe,
  0x6a, 0x71, 0x6f, 0x3d, 0x15, 0x80, 0x27, 0x3c, 0x63, 0x8c, 0xb9, 0xbe,
  0x25, 0x4a, 0x8b, 0x3e, 0xdb, 0xa4, 0x0e, 0x3d, 0x10, 0x49, 0x2d, 0xbe,
  0xec, 0x64, 0x12, 0xbe, 0x14, 0xf4, 0x97, 0x3e, 0x79, 0x09, 0x56, 0xbd,
  0x1a, 0x15, 0x25, 0x3e, 0xa1, 0xd8, 0x35, 0x3d, 0x62, 0xab, 0xbd, 0x3e,
  0xbf, 0x3d, 0x1a, 0x3f, 0xc6, 0xf6, 0x8c, 0xbd, 0x34, 0xb4, 0x60, 0x3c,
  0xa0, 0x89, 0x2d, 0xbe, 0xb8, 0x35, 0x41, 0xbd, 0xb8, 0x1d, 0x48, 0xbd,
  0x27, 0x1c, 0x81, 0xbe, 0x56, 0x3d, 0x8e, 0x3d, 0x6b, 0x3a, 0x12, 0x3e,
  0xf3, 0x9e, 0xe3, 0x3d, 0x74, 0x2a, 0x06, 0x3c, 0x61, 0x41, 0x12, 0x3d,
  0x96, 0x02, 0x70, 0x3d, 0x5d, 0x0b, 0xae, 0x3d, 0x76, 0xe8, 0x1c, 0xba,
  0xd3, 0x07, 0x05, 0x3e, 0xac, 0xe7, 0x2e, 0x3e, 0x32, 0x69, 0x00, 0xbe,
  0x89, 0x2a, 0xbd, 0x3c, 0x6a, 0xc3, 0x4f, 0xbd, 0x7e, 0x20, 0x55, 0x3c,
  0xba, 0x39, 0xae, 0x3d, 0x99, 0xc3, 0x68, 0xbd, 0x73, 0x7e, 0x02, 0x3d,
  0xa3, 0x34, 0xa5, 0xbc, 0x0f, 0x88, 0x96, 0xbd, 0x25, 0x42, 0x5d, 0xbd,
  0x93, 0xd7, 0xb2, 0x3d, 0xd3, 0x39, 0x24, 0xbe, 0xec, 0xd7, 0xf3, 0x3d,
  0xc1, 0x35, 0x91, 0xbe, 0xfc, 0x8a, 0x8d, 0x3e, 0xc1, 0xff, 0x60, 0x3c,
  0x0d, 0xfa, 0xef, 0xbc, 0xac, 0xab, 0x66, 0xbd, 0x4c, 0x2f, 0xc8, 0xbd,
  0xc8, 0xf8, 0x70, 0xbe, 0x12, 0xcb, 0x3c, 0xbe, 0xdc, 0x28, 0x22, 0xbb,
  0xff, 0xc9, 0x6e, 0xbe, 0xdc, 0xc3, 0xd7, 0xbc, 0x11, 0xa6, 0xf9, 0xbc,
  0x9f, 0xae, 0x4f, 0xbe, 0x6c, 0xbb, 0x1a, 0xbe, 0x54, 0x46, 0xd0, 0xbd,
  0x25, 0xe7, 0x00, 0x3d, 0x2e, 0x13, 0xdb, 0x3d, 0x70, 0xc5, 0x88, 0x3d,
  0x38, 0x97, 0x09, 0x3d, 0x70, 0xc6, 0x60, 0x3d, 0x16, 0x81, 0x1d, 0xbd,
  0xae, 0x5a, 0x95, 0xbc, 0x85, 0x11, 0xf1, 0xbc, 0xd5, 0x6f, 0x56, 0xbe,
  0x3c, 0xe0, 0x0a, 0x3e, 0x58, 0xc8, 0x6e, 0xbe, 0x60, 0xda, 0x11, 0x3e,
  0x32, 0xfc, 0x4f, 0x3e, 0x91, 0x03, 0x04, 0x3e, 0x7c, 0xe8, 0x16, 0xbe,
  0xf0, 0xa6, 0x62, 0x3d, 0x59, 0x03, 0xeb, 0x3c, 0x28, 0xb5, 0x6a, 0x3c,
  0xcf, 0x51, 0x02, 0x3d, 0xcd, 0xd6, 0x61, 0xbd, 0x3f, 0x78, 0x6b, 0xbe,
  0x9c, 0x73, 0x2d, 0xbe, 0x3b, 0x94, 0x27, 0xbe, 0xab, 0x98, 0x5d, 0xbd,
  0xeb, 0x81, 0xad, 0xbd, 0x02, 0xf5, 0xb3, 0xbd, 0xb1, 0x17, 0x4f, 0xbe,
  0xed, 0x63, 0xe6, 0xbd, 0xde, 0x51, 0x30, 0xbd, 0x25, 0x01, 0x9a, 0xbd,
  0x88, 0x95, 0xc9, 0xbc, 0xcf, 0x32, 0xb3, 0x3d, 0xaf, 0xc0, 0x24, 0xbe,
  0x3c, 0xb7, 0x5f, 0xbe, 0x2d, 0xf9, 0x04, 0x3e, 0xdb, 0x6a, 0x66, 0xbe,
  0xa3, 0x0d, 0x54, 0xbd, 0x39, 0xdf, 0xea, 0xbd, 0x4c, 0x31, 0x05, 0xbe,
  0x89, 0x88, 0x00, 0xbe, 0xa6, 0x65, 0x58, 0xbc, 0x84, 0x3b, 0x39, 0xbe,
  0x9a, 0xa8, 0xaa, 0x3c, 0x30, 0x96, 0xff, 0x3c, 0x10, 0x37, 0x95, 0xbd,
  0xd2, 0x17, 0x6b, 0xbd, 0x55, 0x05, 0x1d, 0xbd, 0x3c, 0xec, 0x16, 0xbe,
  0xfc, 0xbe, 0xfe, 0xbc, 0x0c, 0xbf, 0x7d, 0xbe, 0xcc, 0x7a, 0x9e, 0xbd,
  0xed, 0x6c, 0x3e, 0x3d, 0xd3, 0x0e, 0xbe, 0xbb, 0x38, 0x04, 0x89, 0x3c,
  0x41, 0x4e, 0x68, 0xbe, 0x9e, 0xaa, 0x0a, 0xbe, 0x9b, 0x9c, 0x4a, 0xbd,
  0x06, 0x20, 0xfc, 0xbd, 0x3d, 0xac, 0xaf, 0x3c, 0x33, 0xe9, 0xc3, 0xbd,
  0xc2, 0x27, 0x1a, 0x3e, 0xd2, 0x37, 0xa5, 0xbd, 0x77, 0xfd, 0x51, 0xbc,
  0x48, 0x6a, 0x87, 0x3c, 0x46, 0xc0, 0x23, 0x3e, 0x9a, 0x54, 0x86, 0x3d,
  0xee, 0x74, 0x4d, 0x3d, 0x30, 0xa0, 0xc8, 0x3d, 0x3b, 0xd3, 0x67, 0xbe,
  0xeb, 0x91, 0x11, 0xbe, 0x2d, 0x25, 0xe5, 0x3c, 0x1c, 0x00, 0x7d, 0xbe,
  0x45, 0x4a, 0x0a, 0x3a, 0x8d, 0x5d, 0x80, 0x3d, 0x94, 0xa3, 0x67, 0x3d,
  0x85, 0x39, 0x0c, 0xbe, 0x52, 0xb0, 0x12, 0xbe, 0xda, 0xbf, 0xa5, 0xbd,
  0x2f, 0x5a, 0x91, 0xbd, 0x55, 0x3f, 0x50, 0xbd, 0x42, 0xec, 0x4c, 0xbd,
  0xb5, 0x1b, 0xb3, 0xbd, 0x7d, 0x54, 0xaa, 0xbe, 0x11, 0x23, 0x5f, 0xbd,
  0xe8, 0xfb, 0x88, 0xbe, 0x82, 0x98, 0x04, 0xbe, 0x9e, 0x65, 0x53, 0xbe,
  0x94, 0xd0, 0x59, 0xbe, 0x00, 0xe2, 0x92, 0xbc, 0xf8, 0xb5, 0x0f, 0x3d,
  0x56, 0xfd, 0xff, 0xff, 0x10, 0x00, 0x00, 0x00, 0x05, 0x00, 0x00, 0x00,
  0x10, 0x00, 0x00, 0x00, 0x30, 0x00, 0x00, 0x00, 0x01, 0x00, 0x00, 0x00,
  0x08, 0x00, 0x00, 0x00, 0x1d, 0x00, 0x00, 0x00, 0x73, 0x65, 0x71, 0x75,
  0x65, 0x6e, 0x74, 0x69, 0x61, 0x6c, 0x2f, 0x63, 0x6f, 0x6e, 0x76, 0x32,
  0x64, 0x2f, 0x43, 0x6f, 0x6e, 0x76, 0x32, 0x44, 0x5f, 0x62, 0x69, 0x61,
  0x73, 0x00, 0x00, 0x00, 0x68, 0xfc, 0xff, 0xff, 0x20, 0x00, 0x00, 0x00,
  0xe1, 0x27, 0x95, 0xbf, 0x8d, 0x4b, 0x05, 0xc0, 0x28, 0x8a, 0x85, 0xbf,
  0xa4, 0x8b, 0x9f, 0xbf, 0x82, 0x51, 0x26, 0xc0, 0xf4, 0xee, 0xeb, 0xbf,
  0xe8, 0x01, 0x81, 0xbf, 0xc8, 0x57, 0xfc, 0xbf, 0xbe, 0xfd, 0xff, 0xff,
  0x10, 0x00, 0x00, 0x00, 0x04, 0x00, 0x00, 0x00, 0x10, 0x00, 0x00, 0x00,
  0x30, 0x00, 0x00, 0x00, 0x01, 0x00, 0x00, 0x00, 0x10, 0x00, 0x00, 0x00,
  0x1f, 0x00, 0x00, 0x00, 0x73, 0x65, 0x71, 0x75, 0x65, 0x6e, 0x74, 0x69,
  0x61, 0x6c, 0x2f, 0x63, 0x6f, 0x6e, 0x76, 0x32, 0x64, 0x5f, 0x31, 0x2f,
  0x43, 0x6f, 0x6e, 0x76, 0x32, 0x44, 0x5f, 0x62, 0x69, 0x61, 0x73, 0x00,
  0xd0, 0xfc, 0xff, 0xff, 0x40, 0x00, 0x00, 0x00, 0xbc, 0x7b, 0xec, 0xbf,
  0x5d, 0xd1, 0xaf, 0xbc, 0xed, 0xee, 0x50, 0x3b, 0x0e, 0x64, 0x6d, 0xbe,
  0x86, 0x6b, 0x9b, 0xbf, 0x58, 0x9c, 0x83, 0xbf, 0x32, 0xde, 0x29, 0x3f,
  0xf3, 0xb7, 0xe6, 0x3f, 0xdc, 0x67, 0x9b, 0xbf, 0xf3, 0x85, 0xef, 0xbf,
  0x01, 0xed, 0x05, 0xbf, 0x57, 0xde, 0x95, 0xbc, 0x22, 0x49, 0xce, 0xbf,
  0xf8, 0xed, 0x08, 0x3b, 0x9f, 0xb3, 0xb7, 0xbc, 0x9e, 0xf1, 0x6b, 0x40,
  0x46, 0xfe, 0xff, 0xff, 0x10, 0x00, 0x00, 0x00, 0x03, 0x00, 0x00, 0x00,
  0x10, 0x00, 0x00, 0x00, 0x30, 0x00, 0x00, 0x00, 0x01, 0x00, 0x00, 0x00,
  0x04, 0x00, 0x00, 0x00, 0x1e, 0x00, 0x00, 0x00, 0x73, 0x65, 0x71, 0x75,
  0x65, 0x6e, 0x74, 0x69, 0x61, 0x6c, 0x2f, 0x64, 0x65, 0x6e, 0x73, 0x65,
  0x5f, 0x31, 0x2f, 0x4d, 0x61, 0x74, 0x4d, 0x75, 0x6c, 0x5f, 0x62, 0x69,
  0x61, 0x73, 0x00, 0x00, 0x58, 0xfd, 0xff, 0xff, 0x10, 0x00, 0x00, 0x00,
  0xee, 0x38, 0x7c, 0xc0, 0x97, 0x60, 0x9c, 0xc0, 0xc1, 0x5f, 0x03, 0x40,
  0x11, 0xbd, 0x70, 0x3f, 0x9e, 0xfe, 0xff, 0xff, 0x10, 0x00, 0x00, 0x00,
  0x02, 0x00, 0x00, 0x00, 0x14, 0x00, 0x00, 0x00, 0x48, 0x00, 0x00, 0x00,
  0x02, 0x00, 0x00, 0x00, 0x04, 0x00, 0x00, 0x00, 0x10, 0x00, 0x00, 0x00,
  0x32, 0x00, 0x00, 0x00, 0x73, 0x65, 0x71, 0x75, 0x65, 0x6e, 0x74, 0x69,
  0x61, 0x6c, 0x2f, 0x64, 0x65, 0x6e, 0x73, 0x65, 0x5f, 0x31, 0x2f, 0x4d,
  0x61, 0x74, 0x4d, 0x75, 0x6c, 0x2f, 0x52, 0x65, 0x61, 0x64, 0x56, 0x61,
  0x72, 0x69, 0x61, 0x62, 0x6c, 0x65, 0x4f, 0x70, 0x2f, 0x74, 0x72, 0x61,
  0x6e, 0x73, 0x70, 0x6f, 0x73, 0x65, 0x00, 0x00, 0xc8, 0xfd, 0xff, 0xff,
  0x00, 0x01, 0x00, 0x00, 0x63, 0x77, 0xde, 0xbe, 0x3d, 0x7e, 0xcf, 0x3d,
  0x06, 0x1e, 0x47, 0x3e, 0x28, 0xf6, 0xca, 0xbd, 0xc0, 0x2e, 0x93, 0x3e,
  0xaf, 0xe9, 0xbb, 0xbd, 0xee, 0x49, 0x42, 0x3e, 0xb8, 0x63, 0xf4, 0xbe,
  0x9b, 0xb1, 0x9d, 0x3e, 0x29, 0x0a, 0xae, 0xbe, 0x3d, 0xf4, 0x0a, 0x3e,
  0xe4, 0xe2, 0x96, 0x3e, 0x18, 0x29, 0xa4, 0x3e, 0x3a, 0x2d, 0xbf, 0x3e,
  0x37, 0xfe, 0x24, 0x3e, 0x0c, 0xe5, 0x06, 0xbf, 0x27, 0xa6, 0x50, 0x3d,
  0x24, 0x5c, 0xe3, 0x3d, 0x0b, 0x0f, 0x0e, 0x3e, 0x7c, 0x66, 0x20, 0xbe,
  0xf7, 0xf4, 0x9c, 0x3e, 0x89, 0xd1, 0x15, 0xbd, 0xb8, 0x59, 0x09, 0x3e,
  0x2f, 0x7b, 0x81, 0x3e, 0xd7, 0x3a, 0x9f, 0x3e, 0xb0, 0x2b, 0x27, 0x3d,
  0x97, 0xcd, 0x18, 0x3e, 0xc2, 0x5d, 0xd7, 0xbd, 0x23, 0x15, 0x80, 0x3e,
  0x9a, 0xab, 0xd5, 0x3e, 0xaa, 0xc5, 0x52, 0x3e, 0xdf, 0x0c, 0x19, 0x3e,
  0x92, 0x39, 0x27, 0x3e, 0xb1, 0x34, 0xc3, 0xbd, 0x39, 0xeb, 0x99, 0x3d,
  0xf2, 0x4b, 0xc8, 0xbd, 0x04, 0x74, 0x9b, 0xbe, 0x47, 0xbc, 0x7a, 0xbd,
  0x1e, 0xfd, 0xd6, 0xbd, 0x49, 0x91, 0x2d, 0x3e, 0xf8, 0x0f, 0x11, 0x3e,
  0xbf, 0x82, 0x85, 0x3e, 0x7b, 0x4d, 0x2f, 0x3e, 0xf7, 0xc4, 0xb0, 0xbe,
  0x54, 0xef, 0x54, 0x3e, 0xb8, 0xde, 0x93, 0x3e, 0xe0, 0x97, 0x79, 0x3d,
  0x44, 0xe8, 0xf2, 0x3c, 0x3f, 0xa3, 0x4d, 0x3e, 0x75, 0x73, 0xab, 0x3c,
  0x0c, 0x9e, 0x1f, 0x3e, 0x37, 0xa0, 0xbb, 0x3c, 0x2c, 0x44, 0x71, 0xbe,
  0x62, 0x15, 0xea, 0x38, 0x73, 0x32, 0x34, 0x3e, 0xcd, 0xb4, 0x18, 0x3d,
  0x0c, 0x68, 0xab, 0x3e, 0xc9, 0x37, 0x1b, 0xbe, 0x71, 0x71, 0xb0, 0x3d,
  0x04, 0xff, 0x57, 0xbe, 0x3a, 0xe4, 0x8c, 0x3e, 0xaf, 0x39, 0xaa, 0x3e,
  0x01, 0xc2, 0x3b, 0x3e, 0xc6, 0x91, 0x22, 0xbe, 0x00, 0x00, 0x0e, 0x00,
  0x14, 0x00, 0x04, 0x00, 0x00, 0x00, 0x08, 0x00, 0x0c, 0x00, 0x10, 0x00,
  0x0e, 0x00, 0x00, 0x00, 0x10, 0x00, 0x00, 0x00, 0x01, 0x00, 0x00, 0x00,
  0x10, 0x00, 0x00, 0x00, 0x30, 0x00, 0x00, 0x00, 0x01, 0x00, 0x00, 0x00,
  0x10, 0x00, 0x00, 0x00, 0x1c, 0x00, 0x00, 0x00, 0x73, 0x65, 0x71, 0x75,
  0x65, 0x6e, 0x74, 0x69, 0x61, 0x6c, 0x2f, 0x64, 0x65, 0x6e, 0x73, 0x65,
  0x2f, 0x4d, 0x61, 0x74, 0x4d, 0x75, 0x6c, 0x5f, 0x62, 0x69, 0x61, 0x73,
  0x00, 0x00, 0x00, 0x00, 0x20, 0xff, 0xff, 0xff, 0x40, 0x00, 0x00, 0x00,
  0xc6, 0x20, 0x81, 0xbe, 0x15, 0xa7, 0x3c, 0xbf, 0x04, 0x9d, 0x94, 0x3e,
  0x0a, 0xda, 0x3a, 0xba, 0x73, 0x99, 0xe2, 0x3e, 0x3f, 0xcc, 0x3d, 0x3e,
  0x84, 0xf9, 0x19, 0x40, 0x4b, 0x7c, 0x1a, 0xbf, 0xe3, 0xbd, 0x0e, 0x40,
  0x4e, 0x26, 0x85, 0xbf, 0x3a, 0x64, 0x66, 0xbf, 0x9b, 0x4a, 0x28, 0x3f,
  0xa9, 0x8c, 0xad, 0x3f, 0x15, 0xd2, 0x6f, 0xbf, 0x73, 0xa4, 0x08, 0x40,
  0x21, 0x5c, 0xcf, 0xbe, 0x07, 0x00, 0x00, 0x00, 0x00, 0x02, 0x00, 0x00,
  0x90, 0x01, 0x00, 0x00, 0x3c, 0x01, 0x00, 0x00, 0xd0, 0x00, 0x00, 0x00,
  0x8c, 0x00, 0x00, 0x00, 0x48, 0x00, 0x00, 0x00, 0x04, 0x00, 0x00, 0x00,
  0x30, 0xfe, 0xff, 0xff, 0x00, 0x00, 0x00, 0x09, 0x04, 0x00, 0x00, 0x00,
  0x10, 0x00, 0x00, 0x00, 0x14, 0x00, 0x00, 0x00, 0x24, 0x00, 0x00, 0x00,
  0x14, 0x00, 0x00, 0x00, 0x01, 0x00, 0x00, 0x00, 0x0b, 0x00, 0x00, 0x00,
  0x01, 0x00, 0x00, 0x00, 0x00, 0x00, 0x00, 0x00, 0x00, 0x00, 0x00, 0x00,
  0x00, 0x00, 0x06, 0x00, 0x08, 0x00, 0x04, 0x00, 0x06, 0x00, 0x00, 0x00,
  0x00, 0x00, 0x80, 0x3f, 0x70, 0xfe, 0xff, 0xff, 0x00, 0x00, 0x00, 0x08,
  0x02, 0x00, 0x00, 0x00, 0x10, 0x00, 0x00, 0x00, 0x1c, 0x00, 0x00, 0x00,
  0x28, 0x00, 0x00, 0x00, 0x1c, 0x00, 0x00, 0x00, 0x03, 0x00, 0x00, 0x00,
  0x0a, 0x00, 0x00, 0x00, 0x0c, 0x00, 0x00, 0x00, 0x0d, 0x00, 0x00, 0x00,
  0x01, 0x00, 0x00, 0x00, 0x0b, 0x00, 0x00, 0x00, 0x00, 0x00, 0x00, 0x00,
  0x04, 0x00, 0x04, 0x00, 0x04, 0x00, 0x00, 0x00, 0xb0, 0xfe, 0xff, 0xff,
  0x00, 0x00, 0x00, 0x08, 0x02, 0x00, 0x00, 0x00, 0x10, 0x00, 0x00, 0x00,
  0x1c, 0x00, 0x00, 0x00, 0x24, 0x00, 0x00, 0x00, 0x1c, 0x00, 0x00, 0x00,
  0x03, 0x00, 0x00, 0x00, 0x0f, 0x00, 0x00, 0x00, 0x08, 0x00, 0x00, 0x00,
  0x09, 0x00, 0x00, 0x00, 0x01, 0x00, 0x00, 0x00, 0x0a, 0x00, 0x00, 0x00,
  0x00, 0x00, 0x00, 0x00, 0x2e, 0xfe, 0xff, 0xff, 0x00, 0x00, 0x00, 0x01,
  0xf0, 0xfe, 0xff, 0xff, 0x00, 0x00, 0x00, 0x05, 0x03, 0x00, 0x00, 0x00,
  0x10, 0x00, 0x00, 0x00, 0x14, 0x00, 0x00, 0x00, 0x2c, 0x00, 0x00, 0x00,
  0x14, 0x00, 0x00, 0x00, 0x01, 0x00, 0x00, 0x00, 0x07, 0x00, 0x00, 0x00,
  0x01, 0x00, 0x00, 0x00, 0x0f, 0x00, 0x00, 0x00, 0x00, 0x00, 0x00, 0x00,
  0x00, 0x00, 0x0e, 0x00, 0x14, 0x00, 0x00, 0x00, 0x04, 0x00, 0x08, 0x00,
  0x0c, 0x00, 0x10, 0x00, 0x0e, 0x00, 0x00, 0x00, 0x01, 0x00, 0x00, 0x00,
  0x03, 0x00, 0x00, 0x00, 0x01, 0x00, 0x00, 0x00, 0x03, 0x00, 0x00, 0x00,
  0x14, 0x00, 0x18, 0x00, 0x00, 0x00, 0x08, 0x00, 0x0c, 0x00, 0x07, 0x00,
  0x10, 0x00, 0x00, 0x00, 0x00, 0x00, 0x14, 0x00, 0x14, 0x00, 0x00, 0x00,
  0x00, 0x00, 0x00, 0x01, 0x10, 0x00, 0x00, 0x00, 0x1c, 0x00, 0x00, 0x00,
  0x30, 0x00, 0x00, 0x00, 0x1c, 0x00, 0x00, 0x00, 0x03, 0x00, 0x00, 0x00,
  0x0e, 0x00, 0x00, 0x00, 0x05, 0x00, 0x00, 0x00, 0x06, 0x00, 0x00, 0x00,
  0x01, 0x00, 0x00, 0x00, 0x07, 0x00, 0x00, 0x00, 0x00, 0x00, 0x00, 0x00,
  0x0c, 0x00, 0x10, 0x00, 0x00, 0x00, 0x08, 0x00, 0x0c, 0x00, 0x07, 0x00,
  0x0c, 0x00, 0x00, 0x00, 0x00, 0x00, 0x00, 0x01, 0x01, 0x00, 0x00, 0x00,
  0x01, 0x00, 0x00, 0x00, 0xa8, 0xff, 0xff, 0xff, 0x00, 0x00, 0x00, 0x05,
  0x03, 0x00, 0x00, 0x00, 0x10, 0x00, 0x00, 0x00, 0x14, 0x00, 0x00, 0x00,
  0x2c, 0x00, 0x00, 0x00, 0x14, 0x00, 0x00, 0x00, 0x01, 0x00, 0x00, 0x00,
  0x04, 0x00, 0x00, 0x00, 0x01, 0x00, 0x00, 0x00, 0x0e, 0x00, 0x00, 0x00,
  0x00, 0x00, 0x00, 0x00, 0x00, 0x00, 0x0e, 0x00, 0x18, 0x00, 0x07, 0x00,
  0x08, 0x00, 0x0c, 0x00, 0x10, 0x00, 0x14, 0x00, 0x0e, 0x00, 0x00, 0x00,
  0x00, 0x00, 0x00, 0x01, 0x03, 0x00, 0x00, 0x00, 0x03, 0x00, 0x00, 0x00,
  0x03, 0x00, 0x00, 0x00, 0x03, 0x00, 0x00, 0x00, 0x14, 0x00, 0x1c, 0x00,
  0x08, 0x00, 0x0c, 0x00, 0x10, 0x00, 0x07, 0x00, 0x14, 0x00, 0x00, 0x00,
  0x00, 0x00, 0x18, 0x00, 0x14, 0x00, 0x00, 0x00, 0x00, 0x00, 0x00, 0x02,
  0x01, 0x00, 0x00, 0x00, 0x10, 0x00, 0x00, 0x00, 0x1c, 0x00, 0x00, 0x00,
  0x34, 0x00, 0x00, 0x00, 0x1c, 0x00, 0x00, 0x00, 0x03, 0x00, 0x00, 0x00,
  0x01, 0x00, 0x00, 0x00, 0x02, 0x00, 0x00, 0x00, 0x03, 0x00, 0x00, 0x00,
  0x01, 0x00, 0x00, 0x00, 0x04, 0x00, 0x00, 0x00, 0x00, 0x00, 0x00, 0x00,
  0x00, 0x00, 0x0e, 0x00, 0x14, 0x00, 0x00, 0x00, 0x08, 0x00, 0x0c, 0x00,
  0x10, 0x00, 0x07, 0x00, 0x0e, 0x00, 0x00, 0x00, 0x00, 0x00, 0x00, 0x01,
  0x01, 0x00, 0x00, 0x00, 0x01, 0x00, 0x00, 0x00, 0x08, 0x00, 0x00, 0x00,
  0x05, 0x00, 0x00, 0x00, 0x34, 0x00, 0x00, 0x00, 0x48, 0x00, 0x00, 0x00,
  0x14, 0x00, 0x00, 0x00, 0x20, 0x00, 0x00, 0x00, 0x04, 0x00, 0x00, 0x00,
  0xce, 0xff, 0xff, 0xff, 0x00, 0x00, 0x00, 0x19, 0xd6, 0xff, 0xff, 0xff,
  0x00, 0x00, 0x00, 0x09, 0xde, 0xff, 0xff, 0xff, 0x00, 0x00, 0x00, 0x09,
  0xe6, 0xff, 0xff, 0xff, 0x00, 0x00, 0x00, 0x11, 0xfa, 0xff, 0xff, 0xff,
  0x00, 0x03, 0x06, 0x00, 0x06, 0x00, 0x05, 0x00, 0x06, 0x00, 0x00, 0x00,
  0x00, 0x11, 0x06, 0x00, 0x08, 0x00, 0x07, 0x00, 0x06, 0x00, 0x00, 0x00,
  0x00, 0x00, 0x00, 0x04

};

unsigned int model_tflite_len = 12448;// Fill the int in `src/model.cc` here